{"[UNK]":0,"[PAD]":1,"<s>":2,"</s>":3,"!":4,"\"":5,"#":6,"$":7,"%":8,"&":9,"'":10,"(":11,")":12,"*":13,"+":14,",":15,"-":16,".":17,"/":18,"0":19,"1":20,"2":21,"3":22,"4":23,"5":24,"6":25,"7":26,"8":27,"9":28,":":29,";":30,"<":31,"=":32,">":33,"?":34,"@":35,"A":36,"B":37,"C":38,"D":39,"E":40,"F":41,"G":42,"H":43,"I":44,"J":45,"K":46,"L":47,"M":48,"N":49,"O":50,"P":51,"Q":52,"R":53,"S":54,"T":55,"U":56,"V":57,"W":58,"X":59,"Y":60,"Z":61,"[":62,"\\":63,"]":64,"^":65,"_":66,"`":67,"a":68,"b":69,"c":70,"d":71,"e":72,"f":73,"g":74,"h":75,"i":76,"j":77,"k":78,"l":79,"m":80,"n":81,"o":82,"p":83,"q":84,"r":85,"s":86,"t":87,"u":88,"v":89,"w":90,"x":91,"y":92,"z":93,"{":94,"|":95,"}":96,"~":97,"¡":98,"¢":99,"£":100,"¤":101,"¥":102,"¦":103,"§":104,"¨":105,"©":106,"ª":107,"«":108,"¬":109,"®":110,"¯":111,"°":112,"±":113,"²":114,"³":115,"´":116,"µ":117,"¶":118,"·":119,"¸":120,"¹":121,"º":122,"»":123,"¼":124,"½":125,"¾":126,"¿":127,"Â":128,"Ã":129,"Ä":130,"Å":131,"Æ":132,"Ç":133,"È":134,"É":135,"Ê":136,"Ë":137,"Ì":138,"Í":139,"Î":140,"Ï":141,"Ð":142,"Ñ":143,"Ò":144,"Ó":145,"Ô":146,"Õ":147,"Ö":148,"×":149,"Ø":150,"Ù":151,"Ú":152,"Û":153,"Ü":154,"Ý":155,"Þ":156,"ß":157,"à":158,"á":159,"â":160,"ã":161,"ä":162,"å":163,"æ":164,"ç":165,"è":166,"é":167,"ê":168,"ë":169,"ì":170,"í":171,"î":172,"ï":173,"ð":174,"ñ":175,"ó":176,"Ā":177,"ā":178,"Ă":179,"ă":180,"ą":181,"Ć":182,"ć":183,"Ĉ":184,"ĉ":185,"ċ":186,"Č":187,"Ď":188,"ď":189,"Đ":190,"Ē":191,"ē":192,"Ĕ":193,"ĕ":194,"Ě":195,"ě":196,"Ĝ":197,"ĝ":198,"Ğ":199,"ğ":200,"ġ":201,"Ģ":202,"ģ":203,"Ĥ":204,"ĥ":205,"Ħ":206,"ħ":207,"Ĩ":208,"ĩ":209,"Ī":210,"ī":211,"Ĭ":212,"ĭ":213,"Į":214,"į":215,"İ":216,"ı":217,"Ĳ":218,"ĳ":219,"Ĵ":220,"ĵ":221,"Ķ":222,"ķ":223,"ĸ":224,"Ĺ":225,"ĺ":226,"Ļ":227,"ļ":228,"Ľ":229,"ľ":230,"Ŀ":231,"ŀ":232,"Ł":233,"ł":234,"Ń":235,"ãģ":236,"ãĤ":237,"ãĥ":238,"ãĢ":239,"ãģ®":240,"ãĢģ":241,"ãģĦ":242,"ãģ«":243,"ãģĹ":244,"ãģ¦":245,"ãģ§":246,"ãģ¨":247,"ãĢĤ":248,"ãģŁ":249,"ãĤĭ":250,"ãĤĴ":251,"ãģª":252,"ãģ¯":253,"ãģĮ":254,"ãģĻ":255,"ãĥ¼":256,"ãģ¾":257,"ï¼":258,"ãĥ³":259,"ãģĭ":260,"ãģ£":261,"ãĤĮ":262,"ä¸":263,"ãĤĤ":264,"ãĤĬ":265,"ãģĨ":266,"ãĤī":267,"ãģĵ":268,"äº":269,"æľ":270,"ãĤ¹":271,"ãģı":272,"ãģķ":273,"ãĥĪ":274,"çĶ":275,"å¤":276,"ãģĤ":277,"å®":278,"ãĥ«":279,"ãĤ¤":280,"ä»":281,"ãģį":282,"åı":283,"åħ":284,"ãĤĵ":285,"åĪ":286,"ä½":287,"åĲ":288,"å¹":289,"ãģł":290,"æĹ":291,"æĸ":292,"ãĤĪ":293,"ãĥĥ":294,"ãģĬ":295,"ãĥª":296,"ãģĳ":297,"ãĤ¢":298,"ãĤ¯":299,"ãģĿ":300,"éĸ":301,"ãĥ©":302,"å¹´":303,"æĹ¥":304,"ãĥ»":305,"è¦":306,"è¨":307,"éĢ":308,"ãĢĮ":309,"ãĢį":310,"è¡":311,"äºº":312,"éģ":313,"åĽ":314,"åŃ":315,"ãĤģ":316,"ãģ©":317,"ãĤĦ":318,"ãģĪ":319,"æĢ":320,"ãĥ¬":321,"ï¼Ī":322,"ï¼ī":323,"å¾":324,"ä¼":325,"åº":326,"ãĤ¿":327,"ãģ¤":328,"ãģĽ":329,"ãĤ·":330,"å¤§":331,"ãĥī":332,"æī":333,"çµ":334,"åł":335,"èª":336,"æĿ":337,"ãĥķ":338,"åľ":339,"ãĤı":340,"åĭ":341,"ãĥŃ":342,"ãĥĹ":343,"ãģ¡":344,"åĬ":345,"æ°":346,"èĢ":347,"æĻ":348,"å½":349,"ãĤ«":350,"å¸":351,"çĽ":352,"å¿":353,"ãĤ¸":354,"ç´":355,"åĩ":356,"ãģ¿":357,"æľ¬":358,"ãĤ°":359,"æľĪ":360,"åĨ":361,"æ¥":362,"ãĤ³":363,"éĩ":364,"çĻ":365,"ä¸Ģ":366,"ãĥĨ":367,"çļ":368,"æķ":369,"æŃ":370,"å°":371,"æĪ":372,"åį":373,"åĩº":374,"äºĭ":375,"æĦ":376,"èĩ":377,"ä¸Ń":378,"æĻĤ":379,"è¡Į":380,"ãĥ¡":381,"åĪĨ":382,"å¯":383,"ãĥŀ":384,"å¼":385,"ãĤµ":386,"æĸ¹":387,"åĲĪ":388,"éĽ":389,"å±":390,"çī":391,"åĮ":392,"çĶ¨":393,"ä¼ļ":394,"åł´":395,"ãĤ£":396,"åī":397,"ãģĶ":398,"ãĥł":399,"ãĤ¦":400,"ãĥĲ":401,"ä¿":402,"éĥ":403,"æĺ":404,"ä¸Ĭ":405,"ãĥĩ":406,"æ³":407,"çĶŁ":408,"ãģ°":409,"éĸĵ":410,"èĩª":411,"ç§":412,"æĢĿ":413,"è©":414,"ç¤":415,"è²":416,"åŃ¦":417,"å¥":418,"çļĦ":419,"åĵ":420,"è¦ĭ":421,"éĻ":422,"ãĥģ":423,"æĮ":424,"æĽ":425,"ãĥĸ":426,"è»":427,"åħ¥":428,"èĢħ":429,"é¡":430,"å·":431,"ãģĺ":432,"åĳ":433,"ãĥĬ":434,"ãĤª":435,"ãĤŃ":436,"æĶ":437,"è³":438,"ä½ľ":439,"çľ":440,"åĽ½":441,"æ°Ĺ":442,"çķ":443,"ãĥĭ":444,"å®ļ":445,"ãĥĵ":446,"æł":447,"éł":448,"ãĥĢ":449,"ãĥ¥":450,"ãĤį":451,"ä¾":452,"ãĥ£":453,"çĲ":454,"æ¥Ń":455,"âĢ":456,"æīĭ":457,"ãĥĳ":458,"ç·":459,"ãĤ¨":460,"è¿":461,"å¾Į":462,"æĬ":463,"åľ°":464,"åŃĲ":465,"å£":466,"åĭķ":467,"çŁ":468,"ï¼ģ":469,"æİ":470,"çĻº":471,"éĿ":472,"æ§":473,"æ´":474,"éļ":475,"éĸĭ":476,"ç«":477,"æĢ§":478,"ãģļ":479,"åīį":480,"è¨Ģ":481,"çĦ":482,"é«":483,"æµ":484,"çĲĨ":485,"ãĤº":486,"ç¤¾":487,"å®Ł":488,"ä½ĵ":489,"ä»Ĭ":490,"å½ĵ":491,"ãĤ»":492,"é«ĺ":493,"æĸ°":494,"æĥ":495,"å¯¾":496,"åķ":497,"éĥ¨":498,"ãĤĩ":499,"çĽ®":500,"æ¸":501,"èĥ":502,"ãĥŁ":503,"ãĥ§":504,"åĽŀ":505,"å¤ļ":506,"é£":507,"åĢ":508,"æ±":509,"ç¥":510,"æľĢ":511,"åĨħ":512,"ç¬":513,"èī":514,"åħ¨":515,"è¦ģ":516,"ä½¿":517,"åĤ":518,"éĢļ":519,"æĿ¥":520,"åĵģ":521,"èŃ":522,"ãĥ¢":523,"æı":524,"æĦŁ":525,"æĪĲ":526,"å¸Ĥ":527,"ãĤ§":528,"ãģŃ":529,"ä»£":530,"ç¶":531,"ä¸ĭ":532,"ç¨":533,"åŁ":534,"åĲĮ":535,"æŀ":536,"ä»¥":537,"çī©":538,"ï½":539,"åıĸ":540,"çŃ":541,"éĸ¢":542,"æ§ĺ":543,"çı":544,"ãĥį":545,"åº¦":546,"ãģ³":547,"æ²":548,"çŁ¥":549,"åĬĽ":550,"è£":551,"èĪ":552,"éĩĳ":553,"éķ":554,"éķ·":555,"çı¾":556,"æ³ķ":557,"åĲį":558,"ãĥĻ":559,"æ©":560,"å®¶":561,"ãĥĿ":562,"æīĢ":563,"æ¯":564,"ç©":565,"èģ":566,"ãĢĢ":567,"èĥ½":568,"çĶ»":569,"ãģ¹":570,"æķ°":571,"ãĢİ":572,"åĮĸ":573,"ãĢı":574,"å¿ĥ":575,"ç¬¬":576,"è¨ĺ":577,"è§":578,"ãĥĦ":579,"æĦı":580,"å¤ī":581,"èĢĥ":582,"ãģ»":583,"çĤ":584,"ç«ĭ":585,"åĪ©":586,"åİ":587,"ãģ¸":588,"ãĤ±":589,"å§":590,"ç¾":591,"æĽ¸":592,"æĮģ":593,"ãģĴ":594,"è¾":595,"èĤ":596,"çĦ¡":597,"è¡¨":598,"æĸĻ":599,"æ¨":600,"æ¥½":601,"åıĹ":602,"æ´»":603,"å¥³":604,"åĬł":605,"æ©Ł":606,"ç§ģ":607,"ï¼Ł":608,"çĬ":609,"æľŁ":610,"åł±":611,"è©±":612,"æ®":613,"æĪ¦":614,"å®ī":615,"ä½ķ":616,"å¤ĸ":617,"ä¹":618,"ãĢħ":619,"ãĥĶ":620,"çľĮ":621,"æĿ±":622,"ãĥı":623,"åºĹ":624,"æ¬":625,"æĭ":626,"éħ":627,"ãĥ¯":628,"çµĲ":629,"çĹ":630,"è«":631,"åķı":632,"æº":633,"æĺİ":634,"è¨Ń":635,"ä¸į":636,"ä¸ĸ":637,"ãĤĥ":638,"éģ¸":639,"åľ¨":640,"ãĥļ":641,"æĥħ":642,"ãĤ¬":643,"åĥ":644,"æŁ":645,"åģ":646,"ãĤ½":647,"éĿ¢":648,"ãĥľ":649,"ç¶ļ":650,"èº":651,"åĪĿ":652,"ãĥİ":653,"æħ":654,"è§£":655,"å¿ħ":656,"å°ı":657,"ä¸»":658,"è¼":659,"è»Ĭ":660,"éĢ£":661,"éŁ":662,"è¶":663,"å¢":664,"èµ":665,"åĸ":666,"çī¹":667,"æŀľ":668,"åı¯":669,"ä»ĺ":670,"å±±":671,"é£Ł":672,"çµĮ":673,"èī¯":674,"éģĵ":675,"æķĻ":676,"ãĥĽ":677,"ï¼ĳ":678,"æĸĩ":679,"å£²":680,"åĲĳ":681,"ä¿Ŀ":682,"çĬ¶":683,"çİ":684,"ãĤ¡":685,"çĽ¸":686,"èĭ":687,"åħ¬":688,"é¨":689,"åĵ¡":690,"æ¼":691,"ç½":692,"åıĤ":693,"âĢ¦":694,"å°ĳ":695,"éĽ»":696,"èº«":697,"èªŀ":698,"äºĪ":699,"ãĤĢ":700,"åħĪ":701,"æĤ":702,"ç´Ħ":703,"ä¿¡":704,"ç¢":705,"çĶ°":706,"é¡Į":707,"è¿ĳ":708,"éļĽ":709,"æŃ£":710,"çł":711,"çĤ¹":712,"ç¢º":713,"ãĤ¶":714,"èı":715,"éĢģ":716,"çĿ":717,"åĳ³":718,"æ°´":719,"éĢ²":720,"éĺ":721,"éĽĨ":722,"éĩį":723,"é¨ĵ":724,"èªį":725,"å¾Ĺ":726,"çķĮ":727,"ç®":728,"é§":729,"å¼ı":730,"ä»ĸ":731,"æľī":732,"å»":733,"ä»ķ":734,"å¿ľ":735,"æ±º":736,"åĭĻ":737,"äº¬":738,"çµĦ":739,"åĦ":740,"åĴ":741,"çĶ£":742,"åĪ¶":743,"çķª":744,"åĪĩ":745,"åĨĨ":746,"ãĤ©":747,"æł¡":748,"èª¿":749,"èĳ":750,"åİŁ":751,"æł¼":752,"ç¥ŀ":753,"ç·ļ":754,"è±":755,"ãģĸ":756,"éĩİ":757,"å¼·":758,"æĮĩ":759,"çļĨ":760,"æµ·":761,"å§ĭ":762,"éģĭ":763,"ç½®":764,"æ¤":765,"è¾¼":766,"å¹³":767,"ï¼Ĵ":768,"ï¼ļ":769,"å³":770,"åĤ¬":771,"ãĢĲ":772,"å¸¸":773,"å·Ŀ":774,"çŃī":775,"å¼ķ":776,"ãĢĳ":777,"æ¬¡":778,"ç¤º":779,"åĴĮ":780,"ãĤ®":781,"ä»ĭ":782,"åĪ¥":783,"æĴ":784,"ä½į":785,"åħĥ":786,"éĮ":787,"æ²»":788,"å²":789,"åŀ":790,"ãĤ²":791,"åı£":792,"é¦":793,"ãģ²":794,"çľŁ":795,"ãĤ´":796,"éĥ½":797,"å½¼":798,"ä¾¡":799,"è·":800,"éħį":801,"è¨Ī":802,"è©¦":803,"ãģĲ":804,"ç³":805,"éģİ":806,"ãģ¶":807,"éĻĲ":808,"åĮº":809,"å³¶":810,"æ°ĳ":811,"åķĨ":812,"ç¿":813,"ï¼Ĳ":814,"æģ":815,"åĤĻ":816,"è³ĩ":817,"çĶº":818,"ä¾Ľ":819,"å®¹":820,"è¬":821,"ç¾İ":822,"åŁº":823,"ä¸ī":824,"æĶ¿":825,"çĿĢ":826,"å®¢":827,"èĦ":828,"éģķ":829,"éĮ²":830,"çµĤ":831,"ä¸ĩ":832,"å½¢":833,"æ¶":834,"åŀĭ":835,"ç¯":836,"å¥½":837,"å·¥":838,"é¤":839,"è¡ĵ":840,"æ¼Ķ":841,"è³ª":842,"åĮĹ":843,"å±ĭ":844,"çĻ»":845,"æĶ¯":846,"åľŁ":847,"ç´ł":848,"åĢĭ":849,"à¸":850,"æŃ¢":851,"åĬ¹":852,"åºĥ":853,"éŁ³":854,"èĬ":855,"ç¨®":856,"æıĲ":857,"åĽ£":858,"äºĮ":859,"æĶ¾":860,"èª¬":861,"ç©º":862,"çĽ´":863,"åŃĺ":864,"å¤©":865,"èī²":866,"åħ±":867,"åĸ¶":868,"ç¦":869,"ãģİ":870,"è»į":871,"ãĥ¤":872,"æµģ":873,"æ·":874,"çĶ·":875,"èĤ²":876,"åıĬ":877,"äº¤":878,"èģŀ":879,"éĻ¢":880,"è»¢":881,"ç¥Ń":882,"èªŃ":883,"æ³¨":884,"è²·":885,"èģ·":886,"è¥":887,"ï½ŀ":888,"è£½":889,"æĺł":890,"å£«":891,"é§ħ":892,"ä¼Ŀ":893,"çĶ³":894,"ä»¶":895,"èŃ°":896,"èµ·":897,"é¡ĺ":898,"éģĶ":899,"çĶ±":900,"æ¤ľ":901,"èı¯":902,"æĸ½":903,"åıİ":904,"ä½ı":905,"ç±":906,"æŁ»":907,"åı·":908,"åĦª":909,"åĭĿ":910,"ãĥ´":911,"æļ":912,"æ¡":913,"æĦĽ":914,"çĻĤ":915,"æľ¨":916,"æĥ³":917,"çģ":918,"ç´¹":919,"æºĸ":920,"æĽ´":921,"ç§ĳ":922,"ç¸":923,"èŃ·":924,"è¼ī":925,"å¦":926,"çĭ":927,"æ§ĭ":928,"è²©":929,"¢¨":930,"æħĭ":931,"åĮ»":932,"åįĺ":933,"å¢Ĺ":934,"çłĶ":935,"æĶ¹":936,"çĦ¶":937,"ï¼Į":938,"ç²":939,"è¶³":940,"å©":941,"æ±Ĥ":942,"åĻ":943,"åı¤":944,"å½¹":945,"ãĥĴ":946,"å»º":947,"ä»»":948,"åı°":949,"èĳī":950,"è¥¿":951,"åŁŁ":952,"é¡ŀ":953,"ç¹":954,"è¦³":955,"ç³»":956,"èĸ":957,"ï¼ĵ":958,"ä¿Ĥ":959,"åĨį":960,"ç´ħ":961,"ãĥ¦":962,"æĲ":963,"éĸĢ":964,"æĬķ":965,"æĬĢ":966,"çĹĩ":967,"æ¨©":968,"æ®ĭ":969,"å½±":970,"åĪ¤":971,"å¡":972,"ä¼ģ":973,"è¦ı":974,"ç®¡":975,"éĿŀ":976,"é¢¨":977,"åĨĻ":978,"éĩı":979,"åĥı":980,"çĪ":981,"ä¾ĭ":982,"å¾ħ":983,"å¸«":984,"æİ¥":985,"éĢł":986,"ãĥĺ":987,"åģ¥":988,"æ³ģ":989,"ãģ¥":990,"èŃĺ":991,"åįĬ":992,"ç¿Ĵ":993,"çĹħ":994,"éłŃ":995,"åĲĦ":996,"åĳ¨":997,"è¦ª":998,"åħī":999,"ç©¶":1000,"è¿Ķ":1001,"æĽ²":1002,"è²»":1003,"ç§»":1004,"å®³":1005,"èĲ":1006,"å¼µ":1007,"æĿĲ":1008,"åĳĬ":1009,"éŃ":1010,"æĸŃ":1011,"ç¦ı":1012,"ç¾©":1013,"éĽ£":1014,"æŃ´":1015,"âĢĿ":1016,"æ¿":1017,"åĥį":1018,"ç´°":1019,"éĺ²":1020,"åįĹ":1021,"æľĿ":1022,"çĻ½":1023,"åıį":1024,"çīĪ":1025,"åĳ¼":1026,"éłĤ":1027,"æĤª":1028,"æ¶Ī":1029,"æ¸Ī":1030,"åĻ¨":1031,"å°Ĥ":1032,"æľĽ":1033,"è¨¼":1034,"å±ķ":1035,"è«ĩ":1036,"æ¯Ķ":1037,"ç¨ĭ":1038,"è«ĸ":1039,"æĹı":1040,"çİĭ":1041,"æ®µ":1042,"èħ":1043,"ãĤĨ":1044,"è±¡":1045,"æĿĳ":1046,"åĢ¤":1047,"çĨ":1048,"å®Į":1049,"ä¹Ĺ":1050,"è³¼":1051,"æĹ©":1052,"éģ©":1053,"èĲ½":1054,"éľ":1055,"åĲ«":1056,"æŃ»":1057,"å¿µ":1058,"åĳ½":1059,"çİĩ":1060,"ç·ı":1061,"æ¯İ":1062,"è·¯":1063,"æºĢ":1064,"ãĤ¼":1065,"æŃ³":1066,"åģ´":1067,"é¤¨":1068,"å®¤":1069,"ä¿®":1070,"åįģ":1071,"è¦ĸ":1072,"ï¾":1073,"ãģľ":1074,"çĴ":1075,"å²¡":1076,"ãģŀ":1077,"åº·":1078,"è©ķ":1079,"çĸ":1080,"æŃ©":1081,"âĹ":1082,"å¢ĥ":1083,"ãģµ":1084,"è¬Ľ":1085,"åº§":1086,"å©ļ":1087,"æķ´":1088,"è£ħ":1089,"è³ŀ":1090,"åľĴ":1091,"äºĨ":1092,"éī":1093,"åī²":1094,"å·ŀ":1095,"æĿ¡":1096,"çķ°":1097,"èį":1098,"èĭ¦":1099,"çµ±":1100,"éĬ":1101,"ä¸İ":1102,"éĽ¢":1103,"çŁ³":1104,"æĭħ":1105,"åºľ":1106,"ç·¨":1107,"æ¯Ľ":1108,"å°İ":1109,"éĻ¤":1110,"å´":1111,"åŃĹ":1112,"æ¹":1113,"éĢŁ":1114,"èĭ±":1115,"çª":1116,"çŃĸ":1117,"é¡į":1118,"çĴ°":1119,"åı²":1120,"æ£":1121,"å¤ª":1122,"æĢ¥":1123,"åįĴ":1124,"å±Ģ":1125,"æ¡Ī":1126,"èĹ":1127,"åįĶ":1128,"éĻį":1129,"ä¸¡":1130,"éĺª":1131,"æİ¢":1132,"å£°":1133,"ãĢľ":1134,"æı´":1135,"å®®":1136,"ä½İ":1137,"å¸°":1138,"å±ŀ":1139,"ãĥ¨":1140,"æĴĥ":1141,"è¿½":1142,"æŃĮ":1143,"å®ħ":1144,"ç¬ĳ":1145,"è¢":1146,"æŁĵ":1147,"éĢ±":1148,"ç±³":1149,"è¦ļ":1150,"éĤ":1151,"å¤«":1152,"ï¼ķ":1153,"èĸ¬":1154,"è»½":1155,"èĪ¬":1156,"åĽ³":1157,"åıĭ":1158,"çĮ":1159,"é»":1160,"éŁ¿":1161,"ä¼ĳ":1162,"å¤±":1163,"åİ»":1164,"è¦§":1165,"æ¸Ľ":1166,"åħ·":1167,"éłĥ":1168,"âĢ»":1169,"æ»":1170,"æ°ı":1171,"å¾©":1172,"éļĬ":1173,"æį":1174,"é¦¬":1175,"éł¼":1176,"åĽ²":1177,"å¤ľ":1178,"è²ł":1179,"æĻ®":1180,"æ¯į":1181,"èĬ±":1182,"çĭ¬":1183,"é£²":1184,"ï¼Ķ":1185,"ç°":1186,"ç©į":1187,"åĩ¦":1188,"æ·±":1189,"æľ«":1190,"æıĽ":1191,"è©³":1192,"ä¾¿":1193,"èĪĹ":1194,"æłª":1195,"æĭ¡":1196,"æĴ®":1197,"éĻº":1198,"æīĵ":1199,"âĢľ":1200,"æľª":1201,"åŁİ":1202,"éº":1203,"çĲĥ":1204,"å¾¡":1205,"æİ²":1206,"èĪĪ":1207,"çĤº":1208,"éĢĢ":1209,"å¸¯":1210,"éīĦ":1211,"æĪ¸":1212,"ãģ¼":1213,"åĬ©":1214,"é¡Ķ":1215,"äºķ":1216,"æĹħ":1217,"å·®":1218,"åĽł":1219,"åĿ":1220,"çħ":1221,"èĮ":1222,"åĭ¢":1223,"è¤":1224,"ç°¡":1225,"ç§°":1226,"ç¨İ":1227,"åħµ":1228,"âĺ":1229,"çģ«":1230,"æīķ":1231,"å®Ī":1232,"æ¸©":1233,"èª°":1234,"åĬ´":1235,"æ´¾":1236,"æ¨ª":1237,"æĬŀ":1238,"ç´ļ":1239,"ç·Ĵ":1240,"ç®Ĺ":1241,"åįĥ":1242,"äºī":1243,"ç¯ī":1244,"æ¿Ģ":1245,"ç²¾":1246,"è¶Ĭ":1247,"ç¶Ļ":1248,"èµ¤":1249,"éļİ":1250,"èĭ¥":1251,"è¶ħ":1252,"æ¨Ļ":1253,"åį°":1254,"æħ®":1255,"èµ°":1256,"å®ĺ":1257,"æ¥µ":1258,"å¯Ħ":1259,"æĮĻ":1260,"æł¹":1261,"çĪ¶":1262,"å´İ":1263,"æŃ¦":1264,"æī±":1265,"è¡Ģ":1266,"æĿ¾":1267,"å¾ĵ":1268,"éłĺ":1269,"åħļ":1270,"çµ¦":1271,"å±ħ":1272,"æĨ":1273,"æĳ":1274,"æ¦":1275,"èĹ¤":1276,"æ¨¡":1277,"æĶ»":1278,"çŃĶ":1279,"éĥ¡":1280,"è°":1281,"å¨":1282,"çĹĽ":1283,"çµ¶":1284,"è°·":1285,"èĤĮ":1286,"èĦ±":1287,"å±Ĭ":1288,"æ½":1289,"ãģ±":1290,"æĺŃ":1291,"è±Ĭ":1292,"è£ľ":1293,"æľį":1294,"æī¿":1295,"æĮ¯":1296,"éĽĳ":1297,"åĥķ":1298,"æĬľ":1299,"é£Ľ":1300,"è¤ĩ":1301,"çĨ±":1302,"è¾º":1303,"æ²¢":1304,"å§Ķ":1305,"ç¯Ģ":1306,"æ¦Ĥ":1307,"è¿°":1308,"éļľ":1309,"åīµ":1310,"å¹¸":1311,"æİĪ":1312,"çµ¡":1313,"ï¼ħ":1314,"æ¸¡":1315,"å¸Į":1316,"æĲº":1317,"å¯Į":1318,"çľģ":1319,"ï¼ı":1320,"çĽ£":1321,"çł´":1322,"çį":1323,"æķħ":1324,"ä¹ħ":1325,"çŁŃ":1326,"ï½¥":1327,"å¤ı":1328,"æİ¡":1329,"âĻ":1330,"åı¸":1331,"æ©ĭ":1332,"å¾´":1333,"æİ¨":1334,"éĿĴ":1335,"é»Ĵ":1336,"åĪĹ":1337,"åħĲ":1338,"èª²":1339,"æ¬²":1340,"æĵ":1341,"å¥ĳ":1342,"æĺŁ":1343,"ï¼ĸ":1344,"é¤Ĭ":1345,"æĪ»":1346,"èĤī":1347,"åĽĽ":1348,"ç´Ģ":1349,"å°Ĩ":1350,"è¢«":1351,"ç±į":1352,"ãĥ¶":1353,"è²¡":1354,"æ¢":1355,"çªģ":1356,"ç´¢":1357,"è¨³":1358,"å§¿":1359,"éĬĢ":1360,"éłħ":1361,"å°±":1362,"æµľ":1363,"æĽľ":1364,"èĳĹ":1365,"å¯Ł":1366,"æĪĳ":1367,"ç´į":1368,"é¦ĸ":1369,"ç«¯":1370,"æķĹ":1371,"âĨ":1372,"æ¸¯":1373,"çķ¥":1374,"è¡Ĺ":1375,"æıı":1376,"æĻ¯":1377,"éģĬ":1378,"éĥİ":1379,"âĸ":1380,"æŃ¯":1381,"æĺ¥":1382,"æĽ¿":1383,"éłĨ":1384,"è¨±":1385,"æ®º":1386,"é³":1387,"ç·´":1388,"éģł":1389,"åº«":1390,"ç«¶":1391,"å¾Ĵ":1392,"èĬ¸":1393,"éĢĶ":1394,"è¨ª":1395,"çķĻ":1396,"èĩ´":1397,"ç´Ļ":1398,"è¨º":1399,"åĸĦ":1400,"åľ§":1401,"éħ¸":1402,"é½":1403,"åĶ":1404,"å¯º":1405,"æºĲ":1406,"è¡Ľ":1407,"å¸ĥ":1408,"è«ĭ":1409,"æ±Ł":1410,"ä½Ĳ":1411,"å«":1412,"æ´ĭ":1413,"æĤ©":1414,"åı³":1415,"å®¿":1416,"åĢŁ":1417,"ç§ĭ":1418,"æĺ¨":1419,"éģº":1420,"å¸Ń":1421,"ï¼ĺ":1422,"åĭŁ":1423,"åĬŁ":1424,"éĻ¸":1425,"è¼ĥ":1426,"å¥Ī":1427,"æŀļ":1428,"ï¼Ĺ":1429,"èĪ¹":1430,"ï¼Ļ":1431,"é½¢":1432,"éĹ":1433,"èĨ":1434,"èĪŀ":1435,"æ³¢":1436,"åĭ¤":1437,"çĿ£":1438,"èŃ¦":1439,"ãģģ":1440,"è¿İ":1441,"é¦Ļ":1442,"ç¹Ķ":1443,"èģ´":1444,"åĬĩ":1445,"ä½Ļ":1446,"èĻ":1447,"æģ¯":1448,"çģ½":1449,"æĿ¿":1450,"äºĶ":1451,"ï¼İ":1452,"æİĽ":1453,"æ´Ĺ":1454,"ç¨¿":1455,"ä»¤":1456,"ä¾Ŀ":1457,"çĦ¼":1458,"è¾²":1459,"ä¸¦":1460,"æ¸¬":1461,"æķµ":1462,"å·»":1463,"å¹ħ":1464,"åĭī":1465,"åĢĴ":1466,"èĪª":1467,"éħĴ":1468,"æĬ¼":1469,"è¬Ŀ":1470,"æĤ£":1471,"åĲī":1472,"æĭł":1473,"ŀį":1474,"çħ§":1475,"åĽ°":1476,"å·¦":1477,"æ¸ħ":1478,"å¯Ĩ":1479,"èĶ":1480,"åĨ·":1481,"ä¼Ĭ":1482,"åºŃ":1483,"å¼ģ":1484,"èĥĮ":1485,"æģĭ":1486,"è³ľ":1487,"éĢĨ":1488,"âĻª":1489,"çµµ":1490,"åħ«":1491,"æ´¥":1492,"å¦»":1493,"æĹ§":1494,"çĽĽ":1495,"èŀį":1496,"åįļ":1497,"éĿĻ":1498,"çĽĬ":1499,"è²¬":1500,"æ£®":1501,"åħħ":1502,"çİī":1503,"ç¸¾":1504,"å¼¾":1505,"ä»²":1506,"å¤®":1507,"æĬĹ":1508,"æķ£":1509,"å°Ħ":1510,"è¨İ":1511,"çļĩ":1512,"ç«ł":1513,"è§¦":1514,"çĸĳ":1515,"æµ®":1516,"ç¾¤":1517,"èªĮ":1518,"åį±":1519,"è§Ĵ":1520,"å¿Ĺ":1521,"éŁĵ":1522,"ãĤ¾":1523,"åĸľ":1524,"èĮ¶":1525,"éĿ©":1526,"å¬":1527,"çĩ":1528,"çŃĭ":1529,"éĽ¨":1530,"æłĦ":1531,"å¢ĵ":1532,"ä¸ģ":1533,"å»ĥ":1534,"å¤¢":1535,"åī¤":1536,"è¸":1537,"æ³ī":1538,"è²¨":1539,"éŃĶ":1540,"èºį":1541,"ä¹Ŀ":1542,"ä»®":1543,"æ²³":1544,"é®":1545,"éģħ":1546,"æĲį":1547,"ä¿º":1548,"å¯Ŀ":1549,"å¯©":1550,"çĬ¬":1551,"ç¨¼":1552,"åħ¸":1553,"çį²":1554,"æ¤į":1555,"éĹĺ":1556,"åģľ":1557,"éľĩ":1558,"ãģ¬":1559,"åįĪ":1560,"éª":1561,"èģĸ":1562,"åįł":1563,"ï¿":1564,"å¾ĭ":1565,"å»¶":1566,"èĶµ":1567,"åłĤ":1568,"ä¼¼":1569,"åĽº":1570,"è¡Ĩ":1571,"éģ¿":1572,"æ¬ł":1573,"è³Ģ":1574,"åİ³":1575,"åĤ·":1576,"éĻ½":1577,"è£ģ":1578,"çļ®":1579,"çľĭ":1580,"å«Į":1581,"å¿ĺ":1582,"æ··":1583,"âĺĨ":1584,"éŃħ":1585,"åĢī":1586,"ï¼Ŀ":1587,"å±¤":1588,"è²´":1589,"é®®":1590,"æĹ¢":1591,"èį·":1592,"éª¨":1593,"å¥ı":1594,"åĢį":1595,"äº¡":1596,"å¿«":1597,"åī¯":1598,"è¼¸":1599,"çľł":1600,"âĢķ":1601,"æĩ":1602,"æĵį":1603,"æħ£":1604,"ãĥĮ":1605,"éłĳ":1606,"ä¹³":1607,"âĹĭ":1608,"æĻ´":1609,"ä¸¸":1610,"ï¼Ĩ":1611,"å·±":1612,"åĢĻ":1613,"ç·ł":1614,"æľŃ":1615,"æļ®":1616,"éģ£":1617,"çĽ¤":1618,"èĢģ":1619,"è·¡":1620,"æĺĵ":1621,"ç¿Į":1622,"å°¾":1623,"ä¼´":1624,"çĮ«":1625,"ç¶Ń":1626,"å£Ĭ":1627,"å¸Ŀ":1628,"è¿·":1629,"çĻ¾":1630,"åĲ¸":1631,"âĨĴ":1632,"æŀĹ":1633,"å²©":1634,"å¾³":1635,"åīĩ":1636,"æĬ±":1637,"åīĬ":1638,"èī¦":1639,"åĦĦ":1640,"åĨ¬":1641,"é³¥":1642,"ç¦ģ":1643,"æ¼«":1644,"æĺ¯":1645,"å¬ī":1646,"ç¥Ŀ":1647,"åŃ£":1648,"æ°¸":1649,"ç¯Ħ":1650,"è£ı":1651,"åĪĬ":1652,"è²¸":1653,"èįī":1654,"å®ĩ":1655,"äºĴ":1656,"æ¶²":1657,"ç½ª":1658,"éİ":1659,"å©¦":1660,"ÃĹ":1661,"å®Ĺ":1662,"âĺħ":1663,"çŃĨ":1664,"âĶ":1665,"ä¹±":1666,"è¼ª":1667,"æ±ł":1668,"èĩ³":1669,"æģĲ":1670,"æĺĩ":1671,"åºķ":1672,"åĲĽ":1673,"ç§ĺ":1674,"æĥĳ":1675,"ç³ĸ":1676,"åİļ":1677,"è«¸":1678,"éĢĥ":1679,"æĺĶ":1680,"çīĩ":1681,"ç£":1682,"å£ģ":1683,"æŀĲ":1684,"âĸł":1685,"é«ª":1686,"çĮ®":1687,"çŀ":1688,"ç¹°":1689,"çĬ¯":1690,"éĸī":1691,"ãĤ¥":1692,"å¨ĺ":1693,"åĪ°":1694,"åĿĤ":1695,"æ²ĸ":1696,"éį":1697,"å¼±":1698,"åĲ¦":1699,"ï½ľ":1700,"ä¸Ī":1701,"åĪ¸":1702,"ä¼¸":1703,"æĬĺ":1704,"åĭ§":1705,"åĬª":1706,"éº»":1707,"é¹":1708,"å¥¥":1709,"ãģ½":1710,"æ³Ĭ":1711,"æ²¹":1712,"ä½µ":1713,"åĪº":1714,"å¹ķ":1715,"ãĤħ":1716,"éļ£":1717,"çĪĨ":1718,"èĩ¨":1719,"ç´Ķ":1720,"é©":1721,"âĹı":1722,"éĩĮ":1723,"å®£":1724,"èħ¹":1725,"å¼Ł":1726,"åĤ¾":1727,"åį´":1728,"åĿĩ":1729,"èıľ":1730,"èĦ³":1731,"å¹¼":1732,"èªķ":1733,"ç¤¼":1734,"åĪ»":1735,"é§Ĳ":1736,"é©ļ":1737,"è¾ŀ":1738,"æķ·":1739,"éŃļ":1740,"æģµ":1741,"ç¸Ħ":1742,"æķĳ":1743,"åŁ·":1744,"åĪĳ":1745,"èĦĤ":1746,"æĬĳ":1747,"ï¿½":1748,"éļł":1749,"å²¸":1750,"è©ŀ":1751,"è·Ŀ":1752,"å®Ŀ":1753,"ç§Ģ":1754,"åħį":1755,"æįķ":1756,"é¹¿":1757,"æļĹ":1758,"åºĬ":1759,"çĶ²":1760,"åħĦ":1761,"å¡Ĺ":1762,"èıĮ":1763,"æ¹¾":1764,"èĩ£":1765,"éĽ°":1766,"è¸ı":1767,"èªĺ":1768,"éľ²":1769,"çĸ²":1770,"è³ĥ":1771,"æ²¿":1772,"æı®":1773,"ï¼¡":1774,"èĸĦ":1775,"é§Ĩ":1776,"ç¸®":1777,"âĳ":1778,"åį³":1779,"ç¾½":1780,"è´":1781,"åħŃ":1782,"ï¼¾":1783,"æ·»":1784,"åĮħ":1785,"æĳĤ":1786,"æ»ħ":1787,"åĺ":1788,"åºģ":1789,"æĲŃ":1790,"é£¯":1791,"çĤİ":1792,"æµ¦":1793,"çĨĬ":1794,"ä¹¾":1795,"çł²":1796,"æı¡":1797,"ç·Ĭ":1798,"éĩĿ":1799,"æ¿ĥ":1800,"å¯Ĵ":1801,"èĢĲ":1802,"æ¨¹":1803,"çłĤ":1804,"æŁĦ":1805,"è¡£":1806,"éĽª":1807,"èĵ":1808,"à¹":1809,"é¡§":1810,"éĽĦ":1811,"éºĹ":1812,"éłĪ":1813,"å¼Ĭ":1814,"æĿŁ":1815,"çĢ":1816,"å¦Ĭ":1817,"è¢ĭ":1818,"çªĵ":1819,"æĮĳ":1820,"èª¤":1821,"è¨´":1822,"å²Ĳ":1823,"ç¥¨":1824,"çĽŁ":1825,"ç¥ī":1826,"å¡©":1827,"å¤ķ":1828,"èĥŀ":1829,"éĤ£":1830,"âĪ":1831,"è£ķ":1832,"èĪİ":1833,"æİĴ":1834,"æĺ¼":1835,"ç¸ģ":1836,"è©²":1837,"é£¾":1838,"çľ¼":1839,"ä¸ĥ":1840,"å·¨":1841,"èĦļ":1842,"å¹¹":1843,"éĥ·":1844,"æĳĺ":1845,"å·¡":1846,"æī¹":1847,"ä¹ĭ":1848,"ï¼ŀ":1849,"ï½Ĺ":1850,"åĤµ":1851,"âĹĨ":1852,"è¶£":1853,"åıĪ":1854,"Â´":1855,"æ¡ľ":1856,"çŀ¬":1857,"æļ´":1858,"çĨŁ":1859,"èĴ":1860,"èĢ³":1861,"ï¼į":1862,"ç¤İ":1863,"æĪ¿":1864,"æµ´":1865,"çĶĺ":1866,"æł¸":1867,"æ±ļ":1868,"æ¹¯":1869,"å¾®":1870,"éĢı":1871,"ç·ĳ":1872,"æĨ¶":1873,"è©°":1874,"ç¹ĭ":1875,"è¿«":1876,"è¥²":1877,"åħ¼":1878,"ä»ı":1879,"æĢĸ":1880,"åĲ¹":1881,"éľĬ":1882,"ç§Ĵ":1883,"è±Ĩ":1884,"æ®¿":1885,"éĨ":1886,"åĢ«":1887,"æİĥ":1888,"ç®±":1889,"ç«¥":1890,"çĢ¬":1891,"æĢª":1892,"å±¥":1893,"å¹Į":1894,"å¡ļ":1895,"çĩĥ":1896,"æ»ŀ":1897,"æ¹¿":1898,"éĸ£":1899,"å¯¿":1900,"ç©´":1901,"æĭĽ":1902,"å¯§":1903,"ï¼£":1904,"æŀł":1905,"æŁĶ":1906,"éĳ":1907,"å´©":1908,"èĻ«":1909,"æ¬§":1910,"è¡Ŀ":1911,"ç¥ĸ":1912,"æĤ²":1913,"å®Ļ":1914,"ç¹ģ":1915,"èįĴ":1916,"ä¿ĥ":1917,"é¬":1918,"è²¢":1919,"éĽĩ":1920,"éı":1921,"æ¼¢":1922,"ï¼³":1923,"èĹ©":1924,"å¥ª":1925,"åī£":1926,"åŁ¼":1927,"å¾¹":1928,"èħķ":1929,"å¥ĩ":1930,"ãĢĭ":1931,"å§ī":1932,"ç²§":1933,"ãĢĬ":1934,"æį¨":1935,"éı¡":1936,"ðŁ":1937,"è·µ":1938,"è¨Ĺ":1939,"ï¼°":1940,"é¼":1941,"ä¾µ":1942,"é¶":1943,"çĤŃ":1944,"èĩŃ":1945,"æĨ²":1946,"éĳĳ":1947,"è¨ĵ":1948,"æ¸ĭ":1949,"é»Ħ":1950,"æ¢°":1951,"åĪ·":1952,"çīĽ":1953,"æĢĴ":1954,"à¸²":1955,"é£¼":1956,"èĥ¸":1957,"ãģ·":1958,"è¼©":1959,"æħ¢":1960,"è´Ī":1961,"æļĳ":1962,"ï¾ŀ":1963,"å¹²":1964,"èĩĵ":1965,"èªł":1966,"éĥµ":1967,"éĤ¦":1968,"åĦĢ":1969,"æıĥ":1970,"ä»Ļ":1971,"éĤĦ":1972,"æĿ¯":1973,"ç¡":1974,"å¿Ļ":1975,"è©©":1976,"å½©":1977,"è¾Ľ":1978,"èħ°":1979,"æĹ¦":1980,"åĦŁ":1981,"å¦Ļ":1982,"èĤ©":1983,"æļĸ":1984,"ç¶º":1985,"åĳĤ":1986,"ç½²":1987,"æ¢ħ":1988,"æīį":1989,"é§Ħ":1990,"åľı":1991,"éĻ£":1992,"åª":1993,"å°Ĭ":1994,"ï¼Ĭ":1995,"å¦¹":1996,"èĤª":1997,"ï¼´":1998,"èıĵ":1999,"éĤª":2000,"ä¿³":2001,"è±ª":2002,"åŁĭ":2003,"ç«¹":2004,"å¥´":2005,"éĪ":2006,"ï¾Ł":2007,"æ¯Ĵ":2008,"à¸£":2009,"éł»":2010,"ç²ī":2011,"æĳ©":2012,"èŃ²":2013,"æĭ¬":2014,"æĬµ":2015,"ï¼¯":2016,"æ¹ĸ":2017,"ï¼ĭ":2018,"ï¼¤":2019,"è³Ľ":2020,"åĶ¯":2021,"éĽ²":2022,"æ½Ł":2023,"çĿ¡":2024,"ä¿Ĺ":2025,"æ³£":2026,"åĨĬ":2027,"æĬĬ":2028,"æİ§":2029,"çĩ¥":2030,"éĩĪ":2031,"éĭ":2032,"æ»ĳ":2033,"èĳ¬":2034,"ç¨²":2035,"é¬¼":2036,"è²¯":2037,"æ¾":2038,"çĭŃ":2039,"é³´":2040,"æ¸ī":2041,"éĬĥ":2042,"æĹ¨":2043,"æĹ¬":2044,"å°ģ":2045,"åĭĩ":2046,"éĺ¿":2047,"åģµ":2048,"è¼Ŀ":2049,"éĻ°":2050,"çĭĻ":2051,"åįµ":2052,"éłĲ":2053,"å¡¾":2054,"çĽĹ":2055,"æĩ¸":2056,"å°½":2057,"Ïī":2058,"æ½ľ":2059,"çĪµ":2060,"åģ½":2061,"ãģ´":2062,"æµħ":2063,"å¥¨":2064,"æ®Ĭ":2065,"ä¸¹":2066,"æ£Ħ":2067,"âĢĶ":2068,"æĭĿ":2069,"æ²¡":2070,"å¨ł":2071,"ï½Ģ":2072,"çŁ¢":2073,"åĸ«":2074,"åĴ²":2075,"æ±Ĺ":2076,"éĿ´":2077,"åĶ±":2078,"ãĤĻ":2079,"å¨ģ":2080,"æ¢¨":2081,"æķ¬":2082,"ï¼©":2083,"å¡ģ":2084,"åŃ«":2085,"åŁ¹":2086,"å°¿":2087,"éļı":2088,"èĨļ":2089,"è»¸":2090,"éĩ£":2091,"åı¥":2092,"å¿ł":2093,"æ¼ı":2094,"é¾":2095,"ç£¨":2096,"èªĩ":2097,"è»Į":2098,"ï¼®":2099,"éĸ²":2100,"ç¥Ī":2101,"çĸ¾":2102,"ï¼¢":2103,"éħµ":2104,"åĵ²":2105,"éĻ¥":2106,"åĩĦ":2107,"èĤĿ":2108,"åıĮ":2109,"ä¸ĺ":2110,"çħĻ":2111,"è²¼":2112,"æ²¼":2113,"æĬ½":2114,"çıį":2115,"é¨İ":2116,"å¸³":2117,"çĻĴ":2118,"ç¡¬":2119,"ç¶²":2120,"èĦĪ":2121,"å¾Ĳ":2122,"å§«":2123,"ç³¸":2124,"æħ¶":2125,"å¦Ĥ":2126,"ä¼º":2127,"æŃĵ":2128,"ï½į":2129,"ç¿»":2130,"éĪ´":2131,"ï¼Ń":2132,"é¾į":2133,"çİĦ":2134,"éģĤ":2135,"ï¼ľ":2136,"æļĩ":2137,"ç·©":2138,"æº¶":2139,"èħ¸":2140,"ç¸¦":2141,"è²«":2142,"âĶģ":2143,"æĤĶ":2144,"æµĦ":2145,"çģ¯":2146,"æĴ¤":2147,"æİĺ":2148,"èĬĿ":2149,"é¨Ĵ":2150,"è²°":2151,"éĺľ":2152,"èĽ":2153,"èĤ¥":2154,"âĶĢ":2155,"ï½°":2156,"éľĢ":2157,"æįľ":2158,"æĭĴ":2159,"è¨Ĥ":2160,"ï¼¥":2161,"è»Ł":2162,"å½¦":2163,"èĺ":2164,"çī§":2165,"ç«ľ":2166,"éļĶ":2167,"é¼»":2168,"è²§":2169,"äºľ":2170,"ä¼ı":2171,"åĨĴ":2172,"âĢĵ":2173,"éģĩ":2174,"ç´«":2175,"ä»ģ":2176,"éİĸ":2177,"ä»°":2178,"æĻ©":2179,"æŁ±":2180,"é¶´":2181,"æĬ«":2182,"å®ľ":2183,"ï½¤":2184,"åºı":2185,"çĵ":2186,"æķı":2187,"ï½¢":2188,"æ¶¯":2189,"ï¼²":2190,"å°»":2191,"èĤ¢":2192,"ç´Ľ":2193,"çĦ¦":2194,"çµŀ":2195,"æµ¸":2196,"à¸Ļ":2197,"ï¼Ľ":2198,"èĮ¨":2199,"èĴ¸":2200,"æģ¥":2201,"æŀĿ":2202,"åģ¶":2203,"éĽ·":2204,"ï½£":2205,"è¸Ĭ":2206,"æ²Ī":2207,"åĩį":2208,"èĨľ":2209,"ï¼ª":2210,"å¼ĺ":2211,"åĬ£":2212,"âĢ¢":2213,"æĻº":2214,"èªī":2215,"éļĨ":2216,"ç®ĩ":2217,"å¥ī":2218,"à¸ģ":2219,"èĵĦ":2220,"æ¿¯":2221,"çĥ":2222,"å°ļ":2223,"åĥļ":2224,"âĪĴ":2225,"æĤŁ":2226,"çķĳ":2227,"ãģĩ":2228,"æ½®":2229,"éº¦":2230,"ä¼¯":2231,"åĬ±":2232,"éİĮ":2233,"æ¬Ħ":2234,"ï¼¦":2235,"ãĢĩ":2236,"ç¿¼":2237,"ä¹Ł":2238,"éĬŃ":2239,"éĢ®":2240,"ï¾Ŀ":2241,"æ¼ģ":2242,"è¦Ĩ":2243,"å«ģ":2244,"å¹¾":2245,"åłĢ":2246,"å¡Ķ":2247,"æĻ¶":2248,"æİª":2249,"æ®ĸ":2250,"Ã£":2251,"è³¢":2252,"æł½":2253,"æĿī":2254,"æŀ¶":2255,"æĹĹ":2256,"å¾Ħ":2257,"åĪĢ":2258,"çį£":2259,"éħ·":2260,"æ°·":2261,"è½":2262,"æ¶Ļ":2263,"æĩĲ":2264,"æıļ":2265,"çľº":2266,"ï¼«":2267,"è¦ĩ":2268,"ç¨ļ":2269,"åĨł":2270,"è¬Ģ":2271,"å±Ī":2272,"è£Ĥ":2273,"æļ¦":2274,"âĨĵ":2275,"éİ®":2276,"çĭĤ":2277,"ï½¡":2278,"æłĥ":2279,"è«¦":2280,"à¸ĩ":2281,"ç¹Ĭ":2282,"éģŃ":2283,"éħ¬":2284,"ï¼¨":2285,"éħĶ":2286,"å°ĭ":2287,"æ¾¤":2288,"âĢĻ":2289,"èĨ¨":2290,"éįµ":2291,"è»Ĵ":2292,"æ£Ł":2293,"ï¼½":2294,"èĮĤ":2295,"ï¼»":2296,"åĭĺ":2297,"æĪĴ":2298,"æ£Ĵ":2299,"è¬İ":2300,"åŀ£":2301,"æįī":2302,"Â»":2303,"åµ":2304,"å¾Ģ":2305,"åģı":2306,"çĭ¼":2307,"æ»Ŀ":2308,"éŃĤ":2309,"æĮ¨":2310,"æĭ¶":2311,"æ±ģ":2312,"æ¶¼":2313,"æħİ":2314,"éºº":2315,"è«¾":2316,"çĸ«":2317,"ç²Ĵ":2318,"å¾ģ":2319,"æıº":2320,"éĽħ":2321,"å¥®":2322,"å¡ŀ":2323,"éĹĩ":2324,"âĦ":2325,"å¯Ľ":2326,"éī±":2327,"éĻĦ":2328,"ç£ģ":2329,"éĬĺ":2330,"äºĢ":2331,"çĳ":2332,"é»Ļ":2333,"ãĢī":2334,"é¡ķ":2335,"åĲĲ":2336,"ï¼§":2337,"å¶":2338,"ï¸":2339,"ç·¯":2340,"ï¼¬":2341,"æĮ¿":2342,"æ¡ĥ":2343,"è¤Ĵ":2344,"èĦĩ":2345,"åĺĺ":2346,"æ»ĭ":2347,"ç¾ħ":2348,"éįĭ":2349,"æ½Ķ":2350,"ç¶¿":2351,"ç¶±":2352,"æĵ¬":2353,"èħĲ":2354,"ä¹ĥ":2355,"å¢³":2356,"èľ":2357,"èı±":2358,"æģ©":2359,"æĸİ":2360,"âī":2361,"æħ°":2362,"åįĵ":2363,"ç½°":2364,"è²¿":2365,"åªĴ":2366,"ãĢĪ":2367,"èĸ¦":2368,"ç²ĭ":2369,"âĳł":2370,"âĻ¡":2371,"åĤĺ":2372,"éĺ»":2373,"æ£ļ":2374,"åı¬":2375,"å·£":2376,"åĻĤ":2377,"æ´ŀ":2378,"èĥĥ":2379,"å²³":2380,"èħ«":2381,"åŀĤ":2382,"å½°":2383,"åĮł":2384,"çĹ©":2385,"Â·":2386,"èĦħ":2387,"åĹ":2388,"é·":2389,"åŃ¤":2390,"æ³³":2391,"éīĽ":2392,"æĭĵ":2393,"å§ĵ":2394,"åĮ¹":2395,"âĪĢ":2396,"æŁ³":2397,"éļ·":2398,"æģĴ":2399,"ä¿Ĭ":2400,"æ·¡":2401,"è¡°":2402,"æ¤ħ":2403,"éĤ¸":2404,"å¹»":2405,"çįĦ":2406,"åłħ":2407,"æ½¤":2408,"åªĽ":2409,"æĸľ":2410,"åħĨ":2411,"å¼¦":2412,"å¹¡":2413,"éĥĬ":2414,"çĮĽ":2415,"çŃĴ":2416,"à¸±":2417,"èįĺ":2418,"èŃľ":2419,"åĶĲ":2420,"ï¿¥":2421,"éĢ¸":2422,"çħ®":2423,"æºľ":2424,"å½«":2425,"æĮŁ":2426,"åı©":2427,"æĭĺ":2428,"ç©ı":2429,"èĻĲ":2430,"æº¢":2431,"æ¬º":2432,"é¦´":2433,"çº":2434,"ç©Ĥ":2435,"ç°¿":2436,"è²ŀ":2437,"æĨ©":2438,"åı¶":2439,"ï¾Į":2440,"èĻļ":2441,"ï¼¶":2442,"å¿į":2443,"æ³Į":2444,"âĳ¡":2445,"é£½":2446,"å¸½":2447,"è¢ĸ":2448,"è½Ħ":2449,"å¯Ĥ":2450,"æ¤İ":2451,"è©Ĳ":2452,"éĬħ":2453,"åī°":2454,"åĲ¾":2455,"ç´ĭ":2456,"å¼¥":2457,"âĸ¼":2458,"å¾ª":2459,"åŃĿ":2460,"éĻ¶":2461,"è±ļ":2462,"å£ĩ":2463,"à¸Ń":2464,"è¿ħ":2465,"çĭ©":2466,"æ²Ļ":2467,"âĦĥ":2468,"æĹŃ":2469,"ï¼µ":2470,"å¦ĸ":2471,"åĻ´":2472,"åģī":2473,"æµª":2474,"ãİ":2475,"èıĬ":2476,"âĹİ":2477,"Ã©":2478,"æĸī":2479,"åĩ½":2480,"æĲ¬":2481,"ç¥¥":2482,"åı«":2483,"ç²ĺ":2484,"äºĳ":2485,"èĳĽ":2486,"å³°":2487,"æĭį":2488,"çķ³":2489,"çĬł":2490,"çĥĪ":2491,"âĸ½":2492,"çĴ§":2493,"çĽĨ":2494,"é¶ı":2495,"åħĭ":2496,"çŁ¯":2497,"ç¬ł":2498,"åĿĬ":2499,"çĪª":2500,"çī²":2501,"é§Ĵ":2502,"è³ł":2503,"âĩ":2504,"åķĵ":2505,"èĤº":2506,"æłĹ":2507,"èĨĿ":2508,"èķ":2509,"à¸ª":2510,"èĬ½":2511,"é´":2512,"âħ":2513,"èĵ®":2514,"èıħ":2515,"å¯¸":2516,"è¨Ł":2517,"åĤį":2518,"çŃĳ":2519,"ç©«":2520,"ï½²":2521,"éģ·":2522,"æĺĮ":2523,"èĿ":2524,"æĨ§":2525,"åĩĿ":2526,"à¸¡":2527,"æĹĭ":2528,"åµĲ":2529,"åłª":2530,"èĺŃ":2531,"ï¾Ĭ":2532,"çļ¿":2533,"ç¸Ľ":2534,"è®":2535,"à¹Ģ":2536,"åīĽ":2537,"å»·":2538,"éŀ":2539,"â¿":2540,"ï¼ł":2541,"éįĽ":2542,"ç¼":2543,"æİ´":2544,"âľ":2545,"èīĩ":2546,"æĭ¾":2547,"æ¼ł":2548,"åĻĽ":2549,"ä¸¼":2550,"åĭĥ":2551,"âĨĲ":2552,"âĩĴ":2553,"éĮł":2554,"Â«":2555,"ä¾¯":2556,"çĻĸ":2557,"éļħ":2558,"æ½°":2559,"åĥ§":2560,"éĭ¼":2561,"æľĹ":2562,"æīī":2563,"æ´²":2564,"ä½Ĩ":2565,"æĭ³":2566,"ç¼¶":2567,"äº«":2568,"éĭŃ":2569,"ï¼·":2570,"éļĻ":2571,"å¬¢":2572,"à¸¢":2573,"æ®Ĩ":2574,"à¸´":2575,"ï½¯":2576,"Âł":2577,"èĵĭ":2578,"çģ°":2579,"å¦¨":2580,"ï¾Ħ":2581,"è¹":2582,"æŁı":2583,"è³Ń":2584,"åĪĥ":2585,"çĺ":2586,"æĦļ":2587,"éĮ¯":2588,"æ¢±":2589,"æµ©":2590,"åĺī":2591,"äºŃ":2592,"èĪĮ":2593,"ç¿Ķ":2594,"æ¹§":2595,"éį¼":2596,"ãģº":2597,"èĥĨ":2598,"èĽĩ":2599,"åºĦ":2600,"èİ":2601,"èĺĩ":2602,"ä¹Ļ":2603,"æĴ²":2604,"æľ±":2605,"ä¹ı":2606,"åĭ¿":2607,"æĽ½":2608,"å®´":2609,"æĭŃ":2610,"èĬ³":2611,"âĨĳ":2612,"æ³°":2613,"éĻ³":2614,"æħĪ":2615,"å¦¥":2616,"æ¡Ĳ":2617,"æĥ¨":2618,"æ³¥":2619,"éĨ¸":2620,"èĮİ":2621,"æ³¡":2622,"çĽ¾":2623,"éĻµ":2624,"ãĥµ":2625,"åĳª":2626,"æ¼Ĥ":2627,"âĹĩ":2628,"çĻĮ":2629,"èĤ¡":2630,"çıł":2631,"çĸİ":2632,"ç¬¦":2633,"à¸ļ":2634,"å®Ľ":2635,"æį®":2636,"æĥ¹":2637,"æĸĹ":2638,"çĵ¶":2639,"ï¸ı":2640,"ç¾Ĭ":2641,"å¶ĭ":2642,"æ¡ģ":2643,"ï½ı":2644,"èĻİ":2645,"é¼ĵ":2646,"æħĮ":2647,"æ¡ĳ":2648,"çĵ¦":2649,"ï½ħ":2650,"à¸Ķ":2651,"çĤī":2652,"æ£ĭ":2653,"ï¾ī":2654,"çĹ´":2655,"æĿİ":2656,"ðŁĺ":2657,"åĭ²":2658,"éģ®":2659,"å¯®":2660,"ãĥ²":2661,"å³¡":2662,"æĵģ":2663,"ÃŃ":2664,"åī¥":2665,"æĻĭ":2666,"éļ»":2667,"èµ´":2668,"åĩĨ":2669,"æ«":2670,"åĦ²":2671,"çģ¸":2672,"è£¸":2673,"ç£¯":2674,"é¨Ļ":2675,"ç§©":2676,"æ¢ģ":2677,"å®°":2678,"èħº":2679,"é¯":2680,"ç¢ĳ":2681,"æīĩ":2682,"æŁ´":2683,"æĥľ":2684,"æ¿¡":2685,"èħİ":2686,"åĮĤ":2687,"ï½¸":2688,"å£®":2689,"ãģī":2690,"æ¼¬":2691,"åĳĪ":2692,"åıĻ":2693,"ç²Ĺ":2694,"å°ī":2695,"ï½½":2696,"æķ¢":2697,"ï¼¸":2698,"çķľ":2699,"ä¾į":2700,"è³ĳ":2701,"Â®":2702,"ä½³":2703,"æĢł":2704,"à¸°":2705,"æºĿ":2706,"æĵ¦":2707,"ç¨Ģ":2708,"æ®»":2709,"à¸§":2710,"åĸª":2711,"ç¥Ĳ":2712,"âĳ¢":2713,"è´ħ":2714,"éĨ¤":2715,"é¤Į":2716,"åľĭ":2717,"è²Ŀ":2718,"éĢ¢":2719,"à¸Ħ":2720,"é¤ħ":2721,"çĤĬ":2722,"è³Ĭ":2723,"çĮ¿":2724,"æĨĤ":2725,"åĻĮ":2726,"ç´¯":2727,"åĢ¶":2728,"å¢ľ":2729,"âĢĭ":2730,"èĢķ":2731,"Âģ":2732,"æĩĩ":2733,"å·§":2734,"ç¯ł":2735,"å´ĩ":2736,"ï½ģ":2737,"æ¾Ħ":2738,"æĽ¹":2739,"ï½ĭ":2740,"å¹£":2741,"ï½ĥ":2742,"ç¸«":2743,"èªĵ":2744,"èĭĹ":2745,"çĪ½":2746,"æľº":2747,"çī¡":2748,"æ§½":2749,"æĪ¯":2750,"åĶĨ":2751,"éĲ":2752,"å¦ĥ":2753,"åĸī":2754,"ï¾Ģ":2755,"åĪĪ":2756,"æĸ¼":2757,"åį¿":2758,"Â©":2759,"ãģĥ":2760,"åĶĩ":2761,"ÐĶ":2762,"åĸ§":2763,"èĸ©":2764,"èĻľ":2765,"æŀķ":2766,"è¼Ķ":2767,"å®ı":2768,"çİ©":2769,"è¬¡":2770,"ç¦Ħ":2771,"ä¼İ":2772,"ç¶¾":2773,"æļ«":2774,"ï½ī":2775,"éĢĲ":2776,"å¢¨":2777,"éľ§":2778,"ãĤĲ":2779,"ç¥Ģ":2780,"ä¼Ĳ":2781,"ï¼¿":2782,"æŁĲ":2783,"æ»´":2784,"ç¦į":2785,"èī¶":2786,"éī¢":2787,"ç±ł":2788,"åłº":2789,"å¼ĵ":2790,"ç§¦":2791,"çķ¿":2792,"åº¶":2793,"éĮ¦":2794,"æĽĩ":2795,"Î±":2796,"æĺ§":2797,"Â¥":2798,"è¦Ĺ":2799,"èĥİ":2800,"æĬ¹":2801,"åĵĢ":2802,"èĪŁ":2803,"æĸĲ":2804,"æ¨½":2805,"æĸ¬":2806,"æ¹ĺ":2807,"éĩľ":2808,"æ²¸":2809,"é¡İ":2810,"èľĤ":2811,"é¨°":2812,"ï½¶":2813,"è¾»":2814,"éħ¢":2815,"çĺį":2816,"è·³":2817,"åĳī":2818,"ãĢĶ":2819,"èĴ²":2820,"ç¯ĩ":2821,"ï¼ĥ":2822,"åĸļ":2823,"ãĢķ":2824,"å»Ĭ":2825,"çıŃ":2826,"æĪ´":2827,"åį¸":2828,"åĮ¿":2829,"æ¡Ĥ":2830,"æŃª":2831,"ï½¼":2832,"å°¼":2833,"å¦Ħ":2834,"åĥħ":2835,"âĿ":2836,"æª":2837,"ç¨½":2838,"à¸Ľ":2839,"æī¶":2840,"ç£Ĳ":2841,"çĳŀ":2842,"æŀ¯":2843,"çµĨ":2844,"å¡Ĭ":2845,"ç¦ħ":2846,"à¸ŀ":2847,"ç´Ĳ":2848,"é´¨":2849,"åĿª":2850,"éĽĢ":2851,"æ¸ĵ":2852,"åĺĨ":2853,"ãĥ½":2854,"à¹Ī":2855,"èļ":2856,"ï½Ķ":2857,"é·¹":2858,"èħĶ":2859,"è¬Ļ":2860,"å°º":2861,"èĢĹ":2862,"çłķ":2863,"å³ł":2864,"à¸Ī":2865,"æĩ²":2866,"ç¶´":2867,"çŁĽ":2868,"à¹ī":2869,"éĥŃ":2870,"ç²Ľ":2871,"æĪļ":2872,"åĲİ":2873,"åļ":2874,"æĦī":2875,"å½Ĺ":2876,"é¬±":2877,"åĵī":2878,"äº®":2879,"èµ¦":2880,"ãĢĴ":2881,"æĺĨ":2882,"æ·³":2883,"ç¯¤":2884,"Â°":2885,"çŀ³":2886,"è¾¿":2887,"à¸¥":2888,"èĦĬ":2889,"é«Ħ":2890,"çª®":2891,"èĥ¡":2892,"Î²":2893,"åĽļ":2894,"éģµ":2895,"ãĤŀ":2896,"ç³§":2897,"æ¼Ĩ":2898,"ï¼¼":2899,"éµ":2900,"åĺ©":2901,"ï¾Ļ":2902,"æķ¦":2903,"æĤł":2904,"æĴŃ":2905,"éĽ¶":2906,"ï¿£":2907,"åĩ¡":2908,"é°":2909,"åħ¶":2910,"éĨĴ":2911,"æĮ«":2912,"ðŁĴ":2913,"æ®´":2914,"ï¸İ":2915,"à¸µ":2916,"ï½ĩ":2917,"èĤ¯":2918,"åĤĳ":2919,"ï¼¹":2920,"Âĥ":2921,"åľŃ":2922,"åıĶ":2923,"åł¤":2924,"éĲĺ":2925,"è¼Į":2926,"æĿı":2927,"æĴ«":2928,"âĢ¥":2929,"å§¦":2930,"Ã¡":2931,"é§¿":2932,"æĴ¥":2933,"æ´ª":2934,"èŁ":2935,"æį§":2936,"âľ¨":2937,"åĲĬ":2938,"åŃĶ":2939,"éļĪ":2940,"ãİ¡":2941,"æŀ¢":2942,"æİĮ":2943,"è«Ń":2944,"ï½±":2945,"ï¼±":2946,"ï½·":2947,"è¹´":2948,"å»»":2949,"æĽĸ":2950,"åįĳ":2951,"ãĤľ":2952,"èĿ¶":2953,"å¹½":2954,"å¡µ":2955,"èĬ¯":2956,"ç¡«":2957,"éģ¥":2958,"å£Į":2959,"é·²":2960,"æľ½":2961,"è²Į":2962,"ç©Ģ":2963,"åĸĭ":2964,"èĲĮ":2965,"æ¢Ĺ":2966,"ç«£":2967,"æĭī":2968,"èĻ¹":2969,"åĬī":2970,"åĳĳ":2971,"ï½Ĵ":2972,"è¾°":2973,"èĬĭ":2974,"ï¾ĺ":2975,"æ·µ":2976,"æ±°":2977,"ç³ŀ":2978,"åĶĦ":2979,"èĦĨ":2980,"ÂĤ":2981,"éł¬":2982,"åºµ":2983,"æ±İ":2984,"åİĦ":2985,"è¡¡":2986,"éģį":2987,"æĪĸ":2988,"çĲ´":2989,"æĨİ":2990,"çĲī":2991,"éºĵ":2992,"ç®¸":2993,"à¹ģ":2994,"ï½İ":2995,"èĭĳ":2996,"æ¢¶":2997,"èºĩ":2998,"èºĬ":2999,"éĪį":3000,"æ«»":3001,"ç¬¹":3002,"å¿Į":3003,"å§ļ":3004,"à¸«":3005,"æľ´":3006,"é£¢":3007,"ï½ĵ":3008,"èĮħ":3009,"æĩī":3010,"åŀ¢":3011,"çī½":3012,"æŁ¿":3013,"èĪ¶":3014,"å®ĭ":3015,"èĬ¦":3016,"é±":3017,"éĿĸ":3018,"çĶļ":3019,"éĮ¬":3020,"éŀŃ":3021,"åĸ°":3022,"çĮŁ":3023,"åĨĹ":3024,"ãĤĿ":3025,"ä¸²":3026,"èĲ©":3027,"è«ı":3028,"âĸ¡":3029,"éĨį":3030,"ï½§":3031,"éĨĲ":3032,"éĸ¥":3033,"æ´Ĵ":3034,"èĹį":3035,"çĤĴ":3036,"æ§»":3037,"à¸Ĺ":3038,"à¸ķ":3039,"æŃ¤":3040,"âĢĲ":3041,"é¤ĥ":3042,"âĸ²":3043,"éłĵ":3044,"èľľ":3045,"è©«":3046,"æ£²":3047,"åĩ¶":3048,"çĽ²":3049,"éĽĮ":3050,"è¾±":3051,"çİ²":3052,"éĦ":3053,"èĨ³":3054,"èķİ":3055,"ç¬Ľ":3056,"ç¶»":3057,"å©Ĩ":3058,"ãģħ":3059,"çīĻ":3060,"æ¬¾":3061,"æģ¨":3062,"éŀį":3063,"å°ĸ":3064,"èĤĸ":3065,"ç®ĭ":3066,"èĴĻ":3067,"çĹķ":3068,"éģ¡":3069,"èĩ¼":3070,"åı±":3071,"å¼Ħ":3072,"æłĵ":3073,"çľī":3074,"çĥı":3075,"à¸Ĭ":3076,"è©£":3077,"æĥļ":3078,"åĭħ":3079,"åĲŁ":3080,"å¸Ĩ":3081,"èĸ«":3082,"çħİ":3083,"éľŀ":3084,"âĹ¯":3085,"åĹ£":3086,"åĹľ":3087,"çª¯":3088,"æĽ°":3089,"éĢĿ":3090,"ç´¡":3091,"èĥ´":3092,"åĩ¸":3093,"ï¾Ĺ":3094,"é³³":3095,"åıª":3096,"åŃ¸":3097,"èı©":3098,"å¦¬":3099,"èĹĿ":3100,"çĮª":3101,"åīĸ":3102,"åīĥ":3103,"å¤·":3104,"èĪĲ":3105,"æģŃ":3106,"å¡«":3107,"è®ĥ":3108,"åĳĨ":3109,"çºı":3110,"çªŁ":3111,"èĽį":3112,"âĢ¼":3113,"æ´©":3114,"åĢ£":3115,"ï¾į":3116,"é¹¸":3117,"åĩ¹":3118,"é¥":3119,"âĳ£":3120,"é³©":3121,"è¬³":3122,"èĳµ":3123,"äºĽ":3124,"ç¹ķ":3125,"æ¥ļ":3126,"åİ©":3127,"çĹº":3128,"é¦³":3129,"æįĹ":3130,"âħ¡":3131,"éĸĳ":3132,"ç´Ĺ":3133,"æĸĳ":3134,"èĤĺ":3135,"çŀŃ":3136,"å¼§":3137,"å´ĸ":3138,"åł°":3139,"éłģ":3140,"çŀĳ":3141,"âģ":3142,"èł":3143,"éĭ³":3144,"è¸ª":3145,"ç´³":3146,"æĤ¼":3147,"âĢĺ":3148,"ï½Į":3149,"çĹ¢":3150,"è®Ĳ":3151,"èĹ»":3152,"çªª":3153,"æĻĥ":3154,"éģ½":3155,"èĴ¼":3156,"è¨Ĭ":3157,"åĭ¾":3158,"æ·Ģ":3159,"ï½Ļ":3160,"æħķ":3161,"èİ«":3162,"ï¾İ":3163,"çĸ¹":3164,"æĻĴ":3165,"æ¥¼":3166,"çīĿ":3167,"èģ¡":3168,"éĩ§":3169,"âĻ¥":3170,"éħİ":3171,"à¸¸":3172,"å«ī":3173,"ï»":3174,"æ§į":3175,"ç¤ģ":3176,"çħ©":3177,"æ©ĺ":3178,"æ·«":3179,"ï»¿":3180,"ï¾ģ":3181,"ä¿µ":3182,"çĿ¦":3183,"éĻĢ":3184,"è¨£":3185,"éł·":3186,"æĿĸ":3187,"éµľ":3188,"æ¨Ĥ":3189,"éŁ»":3190,"ãĥĤ":3191,"è¿Ħ":3192,"æĲ¾":3193,"é±Ĺ":3194,"åĩĮ":3195,"èļĬ":3196,"åĶ¾":3197,"çĦļ":3198,"å¶º":3199,"èĲĩ":3200,"æĥ£":3201,"çĩķ":3202,"çºĤ":3203,"æİ»":3204,"å¨¯":3205,"æľĭ":3206,"èŁ¹":3207,"è©ł":3208,"å¯ħ":3209,"å½Ļ":3210,"æłĸ":3211,"ç¾¨":3212,"åĴ³":3213,"æıī":3214,"à¸¹":3215,"å§»":3216,"çĮ¶":3217,"æĢ¯":3218,"ä¸Ķ":3219,"à¸·":3220,"æ¿ģ":3221,"å£±":3222,"éľľ":3223,"çħ½":3224,"ï¾ħ":3225,"è¤Ĳ":3226,"âĸ³":3227,"ï¾ĥ":3228,"åłķ":3229,"æĥ§":3230,"èĢ¶":3231,"ãĬ":3232,"åĲı":3233,"æļģ":3234,"æĵ¢":3235,"éŃı":3236,"ç¥ĩ":3237,"âĶĥ":3238,"æ±²":3239,"å«¡":3240,"æ¥Ĭ":3241,"çįħ":3242,"åĸĺ":3243,"à¹Į":3244,"è£¾":3245,"âī«":3246,"æ¸ĩ":3247,"å²¬":3248,"æį»":3249,"æ¥ł":3250,"åĩĽ":3251,"é¢":3252,"æ¤¿":3253,"èİī":3254,"ä¾¶":3255,"Ð´":3256,"çĶ¥":3257,"Ã¥":3258,"æĿľ":3259,"èĶĳ":3260,"è¿¦":3261,"æ±½":3262,"å±¯":3263,"æĨĳ":3264,"è³Ħ":3265,"ãģ¢":3266,"ðŁİ":3267,"ä¾Ĩ":3268,"å»£":3269,"âĦ¢":3270,"éł¸":3271,"éĤģ":3272,"åİ¨":3273,"åĨ¥":3274,"æ¢Ŀ":3275,"è¶Ļ":3276,"èĸĶ":3277,"éļķ":3278,"æĳ¯":3279,"å·¾":3280,"çĭĽ":3281,"ç¹į":3282,"ï½Ħ":3283,"èĸĩ":3284,"çŃĪ":3285,"æĽ³":3286,"ï¾ı":3287,"ç´º":3288,"éª¸":3289,"èĤĽ":3290,"âĶĶ":3291,"çº¿":3292,"èį»":3293,"çł¦":3294,"äºĺ":3295,"ä½ĳ":3296,"çľŀ":3297,"çĹĴ":3298,"ï½Ĥ":3299,"ï½Ī":3300,"ç½¹":3301,"åĦĴ":3302,"åĵ¨":3303,"æ¼ķ":3304,"çĳł":3305,"ãĢĿ":3306,"æ±Ĳ":3307,"æºº":3308,"æĽ¾":3309,"éļ¼":3310,"èĸª":3311,"æ´Ľ":3312,"éĩĺ":3313,"à¤":3314,"éĿŃ":3315,"æ¿±":3316,"ï¾ļ":3317,"æ¨º":3318,"åĿĲ":3319,"æ¸¦":3320,"éĽĽ":3321,"å¥Ķ":3322,"æĭĲ":3323,"æ¹Ĭ":3324,"èĭ»":3325,"ãĥħ":3326,"è·¨":3327,"ï½º":3328,"åĿ¦":3329,"ç½ł":3330,"åłĨ":3331,"çģĺ":3332,"æĦķ":3333,"æĤ¦":3334,"çµ¹":3335,"çĲ¶":3336,"éģ¼":3337,"çĲµ":3338,"å»ī":3339,"éĤĳ":3340,"èĽ®":3341,"é«Ń":3342,"ç¢§":3343,"èĭĽ":3344,"ä¿£":3345,"æĨ¤":3346,"åļ¢":3347,"å¸ĸ":3348,"æĭĻ":3349,"éĢĻ":3350,"è¬¹":3351,"ä»Ķ":3352,"å»Ł":3353,"æ±Ŀ":3354,"çıĪ":3355,"èĳº":3356,"æ¨ĭ":3357,"æľĥ":3358,"ãİĿ":3359,"ä¾®":3360,"çĲ²":3361,"é¤ĵ":3362,"éĥģ":3363,"è¿Ĥ":3364,"æĬĦ":3365,"éº¹":3366,"æ³Ħ":3367,"èĮ¸":3368,"èł£":3369,"à¸Ĥ":3370,"å¸¥":3371,"åĩ±":3372,"ç¢ģ":3373,"çģĮ":3374,"åĵº":3375,"åĹħ":3376,"Ð°":3377,"åĲł":3378,"à¸ĸ":3379,"æĿŃ":3380,"æ¯ħ":3381,"ï¼º":3382,"èĭĶ":3383,"à¸¨":3384,"èĮ¹":3385,"åħİ":3386,"çķĶ":3387,"çªĴ":3388,"çīĮ":3389,"ï½Ĳ":3390,"ï½»":3391,"éħª":3392,"âĿ¤":3393,"Ð¾":3394,"éĻĽ":3395,"åĿĳ":3396,"Ã¦":3397,"âħł":3398,"é´»":3399,"Ã¤":3400,"ç®ķ":3401,"å°¹":3402,"ç¿ģ":3403,"âīª":3404,"Ã§":3405,"ÄĽ":3406,"ï¾ĭ":3407,"æĿµ":3408,"à¸³":3409,"âī¦":3410,"æ¸ķ":3411,"âĪŀ":3412,"å·³":3413,"æĤ¶":3414,"æ¿«":3415,"ï¾Ľ":3416,"æ£º":3417,"Ã½":3418,"é«Ķ":3419,"ç½µ":3420,"èĶĵ":3421,"é¨¨":3422,"è¼¿":3423,"æŁļ":3424,"çĪ¾":3425,"èļķ":3426,"çķł":3427,"çī¢":3428,"æŁµ":3429,"å³Ļ":3430,"ï½ķ":3431,"é¯ī":3432,"æĹº":3433,"èĭ«":3434,"âĪĩ":3435,"éĮĲ":3436,"éĨľ":3437,"âī§":3438,"âĢł":3439,"åºĩ":3440,"æĮ½":3441,"æħ¨":3442,"å§ª":3443,"ç·»":3444,"è¯":3445,"èĨ£":3446,"çĦĻ":3447,"å§ľ":3448,"å»ł":3449,"ï½Ń":3450,"æĽĿ":3451,"åĺĶ":3452,"éĩĩ":3453,"âĸ¶":3454,"å³¯":3455,"ä¼½":3456,"âĳ¤":3457,"ï½³":3458,"ãĢŁ":3459,"æīģ":3460,"ç¥·":3461,"çĪº":3462,"èĬ¥":3463,"èŀ":3464,"èģĺ":3465,"ç»":3466,"å¥¢":3467,"Î¼":3468,"åĤ³":3469,"ðŁĳ":3470,"ç¨Ķ":3471,"èĨ¿":3472,"æĴ°":3473,"å··":3474,"å¥Ħ":3475,"é°Ń":3476,"èĥ¤":3477,"æ¡Ķ":3478,"å¼Ķ":3479,"èĶ½":3480,"çīŁ":3481,"éī¾":3482,"ï½¬":3483,"ç¡Ŀ":3484,"å³¨":3485,"Å¡":3486,"å©¿":3487,"åı¡":3488,"çĸ¼":3489,"æĦģ":3490,"éĮĨ":3491,"è¬Ĥ":3492,"èĳ£":3493,"Ã¨":3494,"âħ¢":3495,"à¹ĳ":3496,"ç¨ľ":3497,"âģĦ":3498,"è³¦":3499,"æ¥ķ":3500,"åĥĬ":3501,"å½·":3502,"æ®ī":3503,"åĺ±":3504,"ðŁĻ":3505,"èĨµ":3506,"èī¸":3507,"è½Ł":3508,"èĢĮ":3509,"æľ§":3510,"çĦī":3511,"å¢Ł":3512,"à¹Ĥ":3513,"ä¿¯":3514,"æĺı":3515,"æ¦´":3516,"å£º":3517,"ãĤļ":3518,"è©®":3519,"ãĬ°":3520,"è¥Ł":3521,"æľĶ":3522,"ä¹ŀ":3523,"èĨı":3524,"åĽĥ":3525,"æ¸¥":3526,"æ¯Ģ":3527,"âĶĤ":3528,"çµ¨":3529,"åĹļ":3530,"è¬Ĺ":3531,"çĭĹ":3532,"âĮ":3533,"æĴĴ":3534,"æ°£":3535,"å¡Ģ":3536,"ãĥ±":3537,"éĦŃ":3538,"è«®":3539,"ä¿¸":3540,"ï½®":3541,"æ¡¶":3542,"è²ª":3543,"ç¶¬":3544,"åĸ©":3545,"çªĥ":3546,"é»İ":3547,"èŃļ":3548,"èĲ¬":3549,"æĸ¡":3550,"èĶŃ":3551,"èª¹":3552,"æĭ·":3553,"Ã¼":3554,"å¯¡":3555,"åĸĿ":3556,"çĿ¨":3557,"ï¾Ĵ":3558,"åªļ":3559,"Å¾":3560,"â½":3561,"æ£ĺ":3562,"åµ¯":3563,"ï½ĸ":3564,"çªº":3565,"æħ§":3566,"ï¨":3567,"Ð¸":3568,"ðŁĮ":3569,"é¯Ľ":3570,"à¸ľ":3571,"æ¬ħ":3572,"âĮĴ":3573,"å·´":3574,"â¼":3575,"Ã¶":3576,"æĹł":3577,"éŀĦ":3578,"æĨĲ":3579,"é£´":3580,"äº¥":3581,"æĮº":3582,"æ¯¯":3583,"åĨ¨":3584,"ä½ĩ":3585,"åĳŁ":3586,"ç§Ł":3587,"çĬĢ":3588,"æ¼¿":3589,"æĻ¦":3590,"äºİ":3591,"è³ĵ":3592,"ç«¿":3593,"éİ§":3594,"ç¹Ń":3595,"çĸĩ":3596,"çħī":3597,"èĨĢ":3598,"èĥ±":3599,"åłµ":3600,"çľ©":3601,"çµ¢":3602,"èĩĨ":3603,"æªĢ":3604,"ç²Ł":3605,"æ¦İ":3606,"æ¼¸":3607,"æ¢ĵ":3608,"ç©¿":3609,"ç²ķ":3610,"èĲİ":3611,"Â±":3612,"èĹģ":3613,"é·º":3614,"åĴ½":3615,"ï½ĺ":3616,"å¶½":3617,"çĽĥ":3618,"âĺº":3619,"çĴĥ":3620,"ÅĻ":3621,"ãĪ":3622,"èĪµ":3623,"éĸı":3624,"æ»²":3625,"éŀĺ":3626,"æĵ²":3627,"à¹ĩ":3628,"é«Ļ":3629,"âĸĪ":3630,"æī®":3631,"èŀº":3632,"ðŁĺĬ":3633,"çĥ¹":3634,"éħĮ":3635,"éĸĥ":3636,"èħ±":3637,"æ·¹":3638,"æįı":3639,"ä¸ŀ":3640,"è¢´":3641,"é¯ĸ":3642,"æ§Į":3643,"ç¥ĵ":3644,"æĢ¨":3645,"å£ķ":3646,"éĢĹ":3647,"åĢŃ":3648,"èħĳ":3649,"ç¢ĩ":3650,"åıī":3651,"éģľ":3652,"é½ĭ":3653,"åµ©":3654,"é¯¨":3655,"çĮ¥":3656,"çĪ¬":3657,"çĲ¢":3658,"ï½¨":3659,"åĨ¶":3660,"Â¼":3661,"ä½Ľ":3662,"çĶ«":3663,"çĢ§":3664,"äº§":3665,"ðŁĴ¦":3666,"ÂĢ":3667,"è´¹":3668,"åĩª":3669,"æ¤Ĵ":3670,"ï¾Ĥ":3671,"æªľ":3672,"è«ľ":3673,"äºļ":3674,"åı¢":3675,"æı¶":3676,"èħ¿":3677,"æıĦ":3678,"ç³¾":3679,"èĦ¾":3680,"çŃĲ":3681,"æ«Ľ":3682,"çĵľ":3683,"åĨ´":3684,"ç´ĺ":3685,"å¯µ":3686,"ï¾ĳ":3687,"âĻĢ":3688,"èĴĶ":3689,"ðŁį":3690,"è£Ķ":3691,"åµĮ":3692,"ÏĨ":3693,"å¾½":3694,"ï¾Ĩ":3695,"ï½µ":3696,"ãĥ¾":3697,"á¹":3698,"åĩ°":3699,"èĽĭ":3700,"å·«":3701,"åĤ²":3702,"ï¨ĳ":3703,"ÑĢ":3704,"åŁĥ":3705,"å§ĳ":3706,"è¢ģ":3707,"ç®Ķ":3708,"åĴ¬":3709,"æŁĳ":3710,"åĽģ":3711,"âĿĹ":3712,"âĢī":3713,"ä»ĩ":3714,"åĬ«":3715,"çıĤ":3716,"çħĮ":3717,"èĿ¦":3718,"æ¥ĵ":3719,"è§Ĩ":3720,"æĭĹ":3721,"éłĴ":3722,"çłģ":3723,"å½¿":3724,"çĭĲ":3725,"é®İ":3726,"é¢¯":3727,"èĭº":3728,"çĩĪ":3729,"Ã³":3730,"æ¢¯":3731,"æ°¾":3732,"è½¢":3733,"èĪ·":3734,"èĪĺ":3735,"Äį":3736,"é¸":3737,"à¸ı":3738,"éĳ½":3739,"Îµ":3740,"âĶĪ":3741,"æĶ£":3742,"ç¸ŀ":3743,"ç¤«":3744,"ç¿ł":3745,"ï½´":3746,"åħľ":3747,"çĢķ":3748,"åľĵ":3749,"ç³Ł":3750,"ä¼į":3751,"æ¡ĵ":3752,"Ñģ":3753,"éĭ¸":3754,"åĤŃ":3755,"ç§¤":3756,"å¯¦":3757,"çĺ¤":3758,"ÂŃ":3759,"éļĭ":3760,"æ¸ļ":3761,"çĪĽ":3762,"çĳĽ":3763,"ç¢Ĺ":3764,"åĢ¦":3765,"çĹĻ":3766,"è£³":3767,"çĸµ":3768,"Â²":3769,"å·Į":3770,"è§Ĥ":3771,"ï¾ľ":3772,"æĸ¯":3773,"èĮľ":3774,"éĦ§":3775,"åİŃ":3776,"ãĪ±":3777,"æ¼±":3778,"å¨©":3779,"æĪĬ":3780,"æµĻ":3781,"èģ¯":3782,"èķī":3783,"èĥļ":3784,"è¹Ħ":3785,"ðŁ¤":3786,"å®µ":3787,"å¼Ĳ":3788,"ãħ":3789,"ç«Ļ":3790,"å¾ĺ":3791,"ç¯Ń":3792,"å¾Ĭ":3793,"æ¤Ģ":3794,"âŃ":3795,"é¼ł":3796,"æ¼ĳ":3797,"ÂĪ":3798,"åł¡":3799,"è«±":3800,"Ïĥ":3801,"ï½¾":3802,"çĳķ":3803,"åģļ":3804,"åĨĳ":3805,"æ¡Ł":3806,"ï¾ĸ":3807,"æ¦Ĭ":3808,"Ðº":3809,"å½¡":3810,"æļī":3811,"éĤī":3812,"é¢ĳ":3813,"æ¾ª":3814,"åŁ´":3815,"æ©Ļ":3816,"éº¿":3817,"è¹Ł":3818,"é®Ń":3819,"è¥Ħ":3820,"Âµ":3821,"âĻĤ":3822,"à¸ĵ":3823,"éŃģ":3824,"âĢį":3825,"âĳ¥":3826,"âŃĲ":3827,"å®¥":3828,"çŀ°":3829,"ç³Ģ":3830,"æĺĤ":3831,"Ðµ":3832,"å¬²":3833,"â¾":3834,"âĢĥ":3835,"åģ²":3836,"âī¡":3837,"æĥ°":3838,"æ·ĳ":3839,"æ¿ł":3840,"Â³":3841,"åĲ»":3842,"èķ¾":3843,"åŃŁ":3844,"åĶĸ":3845,"èĦ«":3846,"Å¯":3847,"çķ¶":3848,"æ¢¢":3849,"æ®²":3850,"æ¦ľ":3851,"è¿Ń":3852,"è¼Ľ":3853,"ãĢĨ":3854,"åįĩ":3855,"å¦¾":3856,"ðŁĲ":3857,"é¥ī":3858,"ç¿ħ":3859,"éºŁ":3860,"è¨Ľ":3861,"âĬ":3862,"è¨ĥ":3863,"éĬļ":3864,"à¹Ħ":3865,"å®ķ":3866,"é§ķ":3867,"é¼İ":3868,"çº§":3869,"äº°":3870,"æ¸¾":3871,"çŀ¼":3872,"åĴİ":3873,"é¥ħ":3874,"åļĩ":3875,"åĭĴ":3876,"æıĨ":3877,"èĳ¡":3878,"ç¸£":3879,"å¨¼":3880,"ä¹ĸ":3881,"çĴĭ":3882,"ï½¿":3883,"ÙĪ":3884,"çĩ»":3885,"ÂĮ":3886,"Äģ":3887,"æ²Į":3888,"åº¸":3889,"åĶ¸":3890,"æĸ§":3891,"æ·ĭ":3892,"éµ¬":3893,"éĽ«":3894,"å³»":3895,"èĿķ":3896,"æĸ¥":3897,"éĩī":3898,"è£Ł":3899,"éĮ«":3900,"åŃµ":3901,"æļ¢":3902,"ãİı":3903,"éį¾":3904,"ÑĤ":3905,"èĤĭ":3906,"èĵ¬":3907,"çĤ¸":3908,"çªĦ":3909,"åīª":3910,"ðŁĶ":3911,"åĪ¹":3912,"æĢľ":3913,"åĨ¤":3914,"èĬŃ":3915,"Î©":3916,"èľĺ":3917,"éĲµ":3918,"èĽĽ":3919,"å±ı":3920,"åŁł":3921,"åĴ¸":3922,"à¸į":3923,"å¦ĵ":3924,"é¸ŀ":3925,"ç¦½":3926,"è±¹":3927,"æį²":3928,"ï½¹":3929,"ç½ĳ":3930,"é¤Ĳ":3931,"çķı":3932,"çĨĻ":3933,"æĳº":3934,"åļ¥":3935,"Ã±":3936,"éĤĬ":3937,"å¬Į":3938,"åĻº":3939,"èĨł":3940,"à¥":3941,"âĶ£":3942,"âŀ":3943,"âĢİ":3944,"ÂĻ":3945,"èĿĭ":3946,"äº¨":3947,"ðĿ":3948,"ï½Ĩ":3949,"é¤¡":3950,"èĩ¥":3951,"éį®":3952,"å£¬":3953,"èĬĻ":3954,"è¬ģ":3955,"ðŁı":3956,"Î£":3957,"âĢĤ":3958,"éĢĵ":3959,"ç·ĭ":3960,"âĻ¬":3961,"åĺ²":3962,"á»":3963,"éĿ±":3964,"Ð½":3965,"ï¾Ī":3966,"çĲ¥":3967,"å±į":3968,"è²¶":3969,"è¾£":3970,"âĻ«":3971,"å½Į":3972,"ãİŀ":3973,"Ãł":3974,"èľĢ":3975,"èŁ»":3976,"è««":3977,"æĥŁ":3978,"æĶĺ":3979,"æ¥¯":3980,"éŃ¯":3981,"à¸Ł":3982,"éĢ¼":3983,"åĲĥ":3984,"å£½":3985,"ç¦°":3986,"èĮĦ":3987,"åľĥ":3988,"è¬Ħ":3989,"ç¶ľ":3990,"å¯ĵ":3991,"ç´Ĩ":3992,"ä½©":3993,"éģĻ":3994,"çİĸ":3995,"ãĬĸ":3996,"è»ĭ":3997,"æ¢µ":3998,"éłļ":3999,"à¸Ĵ":4000,"æ·ĺ":4001,"è¢Ī":4002,"æ¨«":4003,"Â¨":4004,"æĭ®":4005,"æį·":4006,"æªİ":4007,"åħģ":4008,"ãĮ":4009,"Îº":4010,"æª»":4011,"íķ":4012,"æıĸ":4013,"å¯ĩ":4014,"æ²«":4015,"Â§":4016,"è¥ĸ":4017,"çıª":4018,"èķ¨":4019,"ãħ¤":4020,"èģ²":4021,"ðŁĴķ":4022,"å¶¼":4023,"èĪĩ":4024,"èº¯":4025,"æĨ¾":4026,"âļ":4027,"éĭĴ":4028,"è«¡":4029,"çĶ¦":4030,"æ¦Ľ":4031,"Âĭ":4032,"âĶľ":4033,"æĮī":4034,"à¹ĥ":4035,"Î³":4036,"Ø§":4037,"å¿½":4038,"Â¹":4039,"îĢ":4040,"âĢ³":4041,"ç¦İ":4042,"ÃĤ":4043,"æĸĮ":4044,"å±ĵ":4045,"é¦¨":4046,"è´Ķ":4047,"éļĺ":4048,"Â£":4049,"è¶¾":4050,"ç«ª":4051,"èĲĦ":4052,"è¤»":4053,"åį¯":4054,"çĩĹ":4055,"çļĲ":4056,"â¿»":4057,"éĻª":4058,"æ¬½":4059,"â¿°":4060,"â¿±":4061,"â¿²":4062,"â¿³":4063,"â¿´":4064,"â¿µ":4065,"â¿¶":4066,"â¿·":4067,"â¿¸":4068,"â¿¹":4069,"â¿º":4070,"ÏĢ":4071,"ç¥ł":4072,"ç¾ŀ":4073,"åľĺ":4074,"èĭħ":4075,"çĸ±":4076,"ç°¾":4077,"èĶ£":4078,"ç£ĭ":4079,"å¢¾":4080,"ç²¥":4081,"èĮī":4082,"åĪ«":4083,"å´Ĺ":4084,"èĹª":4085,"é½Ĭ":4086,"æ«ĵ":4087,"ï¾Ĳ":4088,"é°»":4089,"è©Ķ":4090,"çĹĶ":4091,"æįº":4092,"åıĽ":4093,"å»¿":4094,"Ìģ":4095,"åĸ¬":4096,"æģ£":4097,"è´ĸ":4098,"ãİľ":4099,"ÂĹ":4100,"ç©£":4101,"èĤ´":4102,"ãĤĽ":4103,"Ã¯":4104,"æĥĩ":4105,"Ãī":4106,"èĶ¡":4107,"åĺ´":4108,"åºļ":4109,"éĽģ":4110,"âķ":4111,"âĶĹ":4112,"èĩĢ":4113,"æ©¿":4114,"æ¿¾":4115,"èĶ¦":4116,"ìĿ":4117,"ï¼Ħ":4118,"æ²ĥ":4119,"Âº":4120,"Ð²":4121,"ç®ª":4122,"çĨ¾":4123,"Â¤":4124,"ãĢĥ":4125,"çľ·":4126,"åĿĢ":4127,"éī¤":4128,"èĽĻ":4129,"æ¯ĺ":4130,"æ¦®":4131,"çĽ§":4132,"åĩ§":4133,"åĵ¥":4134,"Ð»":4135,"æİł":4136,"éĿ¡":4137,"à¸ĺ":4138,"ï½ª":4139,"à¹Ĵ":4140,"âīł":4141,"ç»¼":4142,"èĳ¦":4143,"èĻĶ":4144,"ãį":4145,"ï¾ĵ":4146,"âīĴ":4147,"èĻķ":4148,"ðŁĺŃ":4149,"Â¦":4150,"å¡¹":4151,"åĮ¡":4152,"çŁ©":4153,"é¡Ĩ":4154,"çĲ³":4155,"çŁ®":4156,"çĨ¨":4157,"å±ĳ":4158,"æ¶Į":4159,"æĪ®":4160,"é®«":4161,"æİŁ":4162,"å´Ķ":4163,"èİ±":4164,"å¥Ĺ":4165,"èıĸ":4166,"Ĥ¬":4167,"ç´¬":4168,"çĻ¬":4169,"æ§ĥ":4170,"èģļ":4171,"éŀĨ":4172,"åĨª":4173,"ç«º":4174,"è«Ĵ":4175,"éĹĬ":4176,"åĤĢ":4177,"Î»":4178,"åĥĳ":4179,"âĳ¦":4180,"ï¾Ķ":4181,"ä½ĥ":4182,"åĥŃ":4183,"æįĮ":4184,"âħ£":4185,"é°¹":4186,"ÏĦ":4187,"åŃķ":4188,"å¾·":4189,"ä¾ł":4190,"çł¥":4191,"èķĥ":4192,"Â¸":4193,"å±ģ":4194,"åĴĦ":4195,"éģģ":4196,"æ¸¸":4197,"éŁ®":4198,"åĴ¥":4199,"Ãº":4200,"æģ°":4201,"ä»Ģ":4202,"å¼Ľ":4203,"çıĬ":4204,"èºĻ":4205,"é¡Ľ":4206,"à¸Ĳ":4207,"åħ§":4208,"è¡·":4209,"ä¿Ħ":4210,"çĸĨ":4211,"éĹľ":4212,"âľ§":4213,"è³½":4214,"ç³Ĭ":4215,"ðŁĻĩ":4216,"æĽĻ":4217,"è¹Ĥ":4218,"æĥł":4219,"æ¶ħ":4220,"èĸ¨":4221,"æĨļ":4222,"èĤĩ":4223,"å½¬":4224,"åĢĸ":4225,"ç¢į":4226,"åĦ¡":4227,"é¾ķ":4228,"ãĤĳ":4229,"éĸ¤":4230,"ï½ļ":4231,"ðŁ¥":4232,"éŀł":4233,"ðŁĵ":4234,"çĳļ":4235,"æµ£":4236,"åĺĹ":4237,"ÃŁ":4238,"è¸µ":4239,"ÂĦ":4240,"æ¸ł":4241,"éĤµ":4242,"ÂĬ":4243,"ä¸Ļ":4244,"çķĿ":4245,"å§Ĳ":4246,"Âī":4247,"è³¤":4248,"Ì¥":4249,"åįį":4250,"æ¤ĭ":4251,"Äĥ":4252,"èĪ«":4253,"æħĦ":4254,"ãįį":4255,"æ¶Ľ":4256,"á´":4257,"ðŁİµ":4258,"åĮĿ":4259,"æ¬£":4260,"ÙĦ":4261,"âĢº":4262,"èĿī":4263,"æĤ¸":4264,"èĬ¹":4265,"é¥Ĺ":4266,"Âį":4267,"èĢ½":4268,"à¸©":4269,"ç¥Ł":4270,"ç¸ĭ":4271,"èŃī":4272,"çª©":4273,"æ¡¿":4274,"èĺĨ":4275,"âŀ¡":4276,"èĸĻ":4277,"âĪ©":4278,"æ·®":4279,"é°ĵ":4280,"Ð¹":4281,"çĶķ":4282,"è¨Ŀ":4283,"çķ·":4284,"æĨ«":4285,"Ð¼":4286,"çĹ°":4287,"ä¸ĳ":4288,"æĽ¼":4289,"æ§ĩ":4290,"å¡ĳ":4291,"éĽį":4292,"âĻŃ":4293,"ç©¢":4294,"è·ĭ":4295,"å¾¨":4296,"à¸ĭ":4297,"æ¹Ľ":4298,"çĳ³":4299,"éĤ±":4300,"æ¥Ķ":4301,"Âª":4302,"Ã¢":4303,"Ù©":4304,"æĻı":4305,"çĪ±":4306,"Â¯":4307,"ÂŁ":4308,"ç¾¹":4309,"èįĬ":4310,"è£¡":4311,"èºģ":4312,"èĲ¼":4313,"éĤĩ":4314,"åĦļ":4315,"æ²ģ":4316,"çĦĶ":4317,"å®į":4318,"éħī":4319,"èĭŀ":4320,"êµ":4321,"èº¾":4322,"è¤ª":4323,"è½į":4324,"åıĥ":4325,"çĻ¼":4326,"æĦĪ":4327,"è§Ģ":4328,"îĢĦ":4329,"Ëĺ":4330,"ðŁĺħ":4331,"Ãª":4332,"å°į":4333,"Ð·":4334,"éĸ»":4335,"æĿ¢":4336,"éį¬":4337,"èĢĢ":4338,"á¸":4339,"ãĨ":4340,"æ§Ļ":4341,"è´ĭ":4342,"é´ī":4343,"è¾Ł":4344,"äº¦":4345,"èĪĽ":4346,"çĹĺ":4347,"æĬĴ":4348,"éºĴ":4349,"å¿ĸ":4350,"èªħ":4351,"è³Ĥ":4352,"ä¾ĳ":4353,"è§Ħ":4354,"âĻ©":4355,"Å«":4356,"åĬ¾":4357,"ç¾Į":4358,"ç¦®":4359,"Âĸ":4360,"çļº":4361,"íķľ":4362,"éĢŀ":4363,"å±ł":4364,"çħķ":4365,"é½İ":4366,"ÂĽ":4367,"å¤Ń":4368,"åį¡":4369,"åħĴ":4370,"æ¼ī":4371,"ç±Ĳ":4372,"å¹¶":4373,"å£·":4374,"âģī":4375,"è¨»":4376,"åĮĪ":4377,"ç¢©":4378,"éĺ®":4379,"ÎĶ":4380,"åĴĢ":4381,"Ñĥ":4382,"âĿ£":4383,"ãĢŀ":4384,"å¹Ł":4385,"åĢ¹":4386,"é¹µ":4387,"Ã·":4388,"êĴ":4389,"åħ³":4390,"éļ§":4391,"éĸ¾":4392,"æİ©":4393,"ç½·":4394,"Âķ":4395,"çĽĤ":4396,"å·½":4397,"ç«Ħ":4398,"åĥ»":4399,"çģ¼":4400,"âĩĶ":4401,"èķ©":4402,"å¾ŀ":4403,"å¥¸":4404,"ç«Ī":4405,"åĴ¤":4406,"é´¦":4407,"ç¥ģ":4408,"ç³ł":4409,"èİ¢":4410,"çĭ¸":4411,"ðŁĳį":4412,"é¶¯":4413,"èı°":4414,"èĦĽ":4415,"ç£Ķ":4416,"âĳ§":4417,"ðŁı»":4418,"ç½«":4419,"æĹĽ":4420,"è§ģ":4421,"èĦ©":4422,"à¸ł":4423,"éĭı":4424,"è¨¶":4425,"å´ĳ":4426,"Âı":4427,"ÌĢ":4428,"èķŃ":4429,"çĩŃ":4430,"åĹŁ":4431,"åļ¼":4432,"á´Ĺ":4433,"Ä«":4434,"æ¼£":4435,"è¯į":4436,"âĬĤ":4437,"æ¥·":4438,"çıĢ":4439,"åĴĨ":4440,"èĻ»":4441,"Î¦":4442,"çłº":4443,"å¡ĺ":4444,"æ¿¤":4445,"èĴĲ":4446,"Ã´":4447,"Ä±":4448,"è´Ħ":4449,"ãĩ":4450,"ìĸ":4451,"æ¥¢":4452,"åĵ®":4453,"ç¬¥":4454,"èį¼":4455,"èĮĥ":4456,"ðŁĶ¥":4457,"äº¢":4458,"è«º":4459,"ðŁİĦ":4460,"å¹ĩ":4461,"å¨ĥ":4462,"éĨĩ":4463,"ç¶ĵ":4464,"ï½«":4465,"éµł":4466,"Ùħ":4467,"æ¯¬":4468,"è«Į":4469,"Â¿":4470,"ÌĨ":4471,"äº²":4472,"æ¡§":4473,"åģ·":4474,"èºĵ":4475,"ç¶ı":4476,"Îŀ":4477,"æķ¸":4478,"çį¨":4479,"çĺ¡":4480,"é±Ī":4481,"ÙĬ":4482,"åķĦ":4483,"Â¾":4484,"çĿ¾":4485,"êµŃ":4486,"èĳ±":4487,"è·ª":4488,"å´ĭ":4489,"ç±¾":4490,"à®":4491,"éŁ©":4492,"éĤ¨":4493,"çĵ¢":4494,"çĪ²":4495,"çĢĭ":4496,"èħĵ":4497,"ç¡¯":4498,"é´İ":4499,"æ«ĥ":4500,"åĵĪ":4501,"æºª":4502,"æ¶ľ":4503,"èĻŀ":4504,"æĪİ":4505,"éķ¿":4506,"å©ģ":4507,"âĹ¡":4508,"Î´":4509,"æĸ·":4510,"æ»¸":4511,"âĻ¦":4512,"ç£¾":4513,"ï¼Ĥ":4514,"èī¤":4515,"èįı":4516,"çŀŀ":4517,"ðŁĺĤ":4518,"æĪĮ":4519,"å¼¼":4520,"éĻĿ":4521,"çĤĻ":4522,"æį©":4523,"èĽ¾":4524,"ðĿĲ":4525,"Ø±":4526,"æĴ»":4527,"èħĭ":4528,"è®Ģ":4529,"æĸ¤":4530,"æīĺ":4531,"é¼¾":4532,"å¼º":4533,"à¸¯":4534,"æ£¹":4535,"à¹ķ":4536,"à¹ĸ":4537,"èĢĨ":4538,"å·²":4539,"ðŁĺĨ":4540,"çķ«":4541,"èĵĳ":4542,"ìĸ´":4543,"Â¡":4544,"Â½":4545,"ãĥ°":4546,"å½Ń":4547,"éīħ":4548,"Ãĥ":4549,"åįľ":4550,"æŀ·":4551,"æ¬Ĵ":4552,"å´Ļ":4553,"çĥŃ":4554,"æĻ°":4555,"è¼¯":4556,"æĤī":4557,"âī¤":4558,"ä¸ľ":4559,"èĭŁ":4560,"ç¦¿":4561,"æĹ±":4562,"åį·":4563,"é³¶":4564,"ìĦ":4565,"å©·":4566,"åĩľ":4567,"çĻĩ":4568,"ï½Ĭ":4569,"æ®·":4570,"é¦®":4571,"æ¾±":4572,"åł¯":4573,"è¬¬":4574,"èĬĴ":4575,"ç«ĩ":4576,"âĳ¨":4577,"åĩĭ":4578,"çħ¥":4579,"èķĬ":4580,"Âĵ":4581,"è¿¹":4582,"æ¢§":4583,"èİŀ":4584,"âĤ¬":4585,"æīĪ":4586,"é®¨":4587,"â½¬":4588,"Âľ":4589,"Î½":4590,"ç®Ĵ":4591,"ãĮ½":4592,"ç§£":4593,"éĬĩ":4594,"è®Ĭ":4595,"éĬĳ":4596,"èĵī":4597,"çļĵ":4598,"å°¤":4599,"æłŀ":4600,"âħ¤":4601,"åĩł":4602,"çŃı":4603,"èĹ¥":4604,"é»ŀ":4605,"å¬°":4606,"ÂĶ":4607,"áĢ":4608,"ä»Ħ":4609,"è¡¿":4610,"æŁĬ":4611,"èģ³":4612,"æ½ĺ":4613,"ÂĴ":4614,"å¨¶":4615,"èŁ²":4616,"Ð³":4617,"å½ħ":4618,"é½Ł":4619,"âī¥":4620,"èļ¤":4621,"æĪ°":4622,"å¥ł":4623,"ç¨±":4624,"ï½Ŀ":4625,"éıĳ":4626,"ïĺ":4627,"âĺĢ":4628,"é½¬":4629,"çĩ¦":4630,"æ¾ģ":4631,"éĵ":4632,"è¼»":4633,"ðŁĴĵ":4634,"èĻŁ":4635,"êĴ³":4636,"Ñĭ":4637,"â¬":4638,"æĿŀ":4639,"æ´¸":4640,"ç¬ı":4641,"âİ":4642,"æµļ":4643,"æ¡Ŀ":4644,"çĢ¾":4645,"â¼Ĵ":4646,"èĶļ":4647,"é¥Ĵ":4648,"ìł":4649,"ï½Ľ":4650,"é§ģ":4651,"âİ¯":4652,"ä½¼":4653,"è±«":4654,"â¸":4655,"âĭ":4656,"æĸĤ":4657,"æĿĵ":4658,"ç¥ļ":4659,"ðŁİį":4660,"æĶª":4661,"è¢¢":4662,"ëĭ":4663,"åĨ²":4664,"æ½Ń":4665,"ðŁŁ":4666,"èľ·":4667,"ç·ĺ":4668,"åŁĴ":4669,"å²±":4670,"èł¢":4671,"à¥į":4672,"çĹį":4673,"ÆĴ":4674,"ï©":4675,"éĢ¡":4676,"è¡Ļ":4677,"éłĮ":4678,"ç·¬":4679,"ç©İ":4680,"è«§":4681,"åĦĺ":4682,"éº©":4683,"âĺİ":4684,"çŀ¥":4685,"éĲ¸":4686,"è«į":4687,"ç¦¹":4688,"Ø¨":4689,"åį¦":4690,"è¤¥":4691,"é¬Ĩ":4692,"æĭ¿":4693,"ç²į":4694,"èĴľ":4695,"éĳ¿":4696,"ìĿ´":4697,"éĽĸ":4698,"âĢ²":4699,"å§¶":4700,"çĢŀ":4701,"âħ¨":4702,"Ã²":4703,"åħ®":4704,"åĤħ":4705,"èĪľ":4706,"ç®ı":4707,"ç¿¹":4708,"ç°Ģ":4709,"èĽŃ":4710,"è®Ĵ":4711,"à¤°":4712,"áº":4713,"åįī":4714,"æ¥³":4715,"ç¥Ĺ":4716,"æħ¾":4717,"çĸĭ":4718,"ðŁĮ¸":4719,"Â¢":4720,"å¼Ĺ":4721,"ÂĨ":4722,"Ð±":4723,"åħª":4724,"åĳ»":4725,"æĭ¼":4726,"æĴ¹":4727,"ï¸¶":4728,"ÅŁ":4729,"èĸ®":4730,"èĸ¯":4731,"é½§":4732,"Åį":4733,"å¯¹":4734,"åľ³":4735,"åľ»":4736,"åĩŃ":4737,"å¥ķ":4738,"å»ĵ":4739,"ðŁĻı":4740,"ÄĮ":4741,"èīĺ":4742,"èģ°":4743,"éĭ²":4744,"Ìµ":4745,"Ð¿":4746,"åģķ":4747,"åĿı":4748,"Â¬":4749,"Î¸":4750,"ÏĪ":4751,"èĩº":4752,"å¥¶":4753,"åĳµ":4754,"éĮĺ":4755,"çĭ¡":4756,"çħ¤":4757,"è½½":4758,"Âŀ":4759,"ËĤ":4760,"Îĸ":4761,"ê¸":4762,"éĸĶ":4763,"æłĤ":4764,"ï½©":4765,"åİĺ":4766,"åĴĭ":4767,"å¦ĩ":4768,"éľĸ":4769,"æ£į":4770,"éĹ´":4771,"èĴĭ":4772,"Ëĥ":4773,"çĻª":4774,"ç¿¡":4775,"æ»ĵ":4776,"çĥĻ":4777,"é°Ĳ":4778,"ðŁİ¶":4779,"çµ£":4780,"çµ²":4781,"ç§į":4782,"è¶¨":4783,"éĹ¨":4784,"çĢī":4785,"ðŁĩ":4786,"Ã¸":4787,"åŃļ":4788,"èĩį":4789,"ç§ī":4790,"éŁĭ":4791,"à½":4792,"ç¥¢":4793,"æ²ĵ":4794,"éĮ®":4795,"âĻ¯":4796,"é½Ĵ":4797,"âľ¿":4798,"æĭĮ":4799,"æĴĿ":4800,"éī¦":4801,"èĮ«":4802,"èŁĦ":4803,"Ãľ":4804,"Î¿":4805,"èª¦":4806,"éħĭ":4807,"æĴļ":4808,"éĮ¨":4809,"ðŁĺģ":4810,"èłį":4811,"ÍĪ":4812,"ä¿ĺ":4813,"è³Ī":4814,"æ¨ĵ":4815,"æĴĪ":4816,"è®©":4817,"èŀ¢":4818,"åľĢ":4819,"ç®Ń":4820,"çĴ½":4821,"å½ª":4822,"ä¿Ł":4823,"ðŁļ":4824,"è¹Ĭ":4825,"å¡Ļ":4826,"çĳ¤":4827,"ÂĲ":4828,"é¡°":4829,"éŃĥ":4830,"èķª":4831,"æ«Ĥ":4832,"ä¸º":4833,"çĽŀ":4834,"æĶ«":4835,"à¹ĵ":4836,"éĨ«":4837,"ÂĿ":4838,"âĢª":4839,"ç¬Ļ":4840,"âĸ·":4841,"âľ©":4842,"ç¨ł":4843,"çĸı":4844,"é®ª":4845,"à¹Ĩ":4846,"çĢĳ":4847,"âł":4848,"ï¹":4849,"ä¸ª":4850,"æĬī":4851,"èĸĹ":4852,"é»ĳ":4853,"èĵ¼":4854,"ðŁįĢ":4855,"ìĹ":4856,"æĹ¶":4857,"ä¹İ":4858,"çĸ¸":4859,"ìĤ¬":4860,"èº°":4861,"èĲ±":4862,"é®Ĵ":4863,"æª¢":4864,"à¤¾":4865,"åıĳ":4866,"å¼©":4867,"ç¨·":4868,"ç¿°":4869,"à¸ī":4870,"éºµ":4871,"æĵĤ":4872,"æĩº":4873,"âľĮ":4874,"æ²Ĳ":4875,"ðŁ¤£":4876,"â¤":4877,"âĪł":4878,"ðŁĺĥ":4879,"åľĸ":4880,"é£Ħ":4881,"éĪĳ":4882,"åħĮ":4883,"éļ´":4884,"âĺĳ":4885,"âľĶ":4886,"âľķ":4887,"è¯¦":4888,"å°¸":4889,"ç¦Ĭ":4890,"éĤ¯":4891,"æĨĬ":4892,"¤Ń":4893,"Ì¶":4894,"Î¨":4895,"ð¤Ń":4896,"ä¸¿":4897,"ç¸½":4898,"é±ł":4899,"ð¤Ń¯":4900,"à¯":4901,"ê³":4902,"Ðļ":4903,"è¢Ĥ":4904,"âģ¾":4905,"Âĳ":4906,"é«£":4907,"é«´":4908,"æ»¡":4909,"æĵ¾":4910,"ðŁĺ¢":4911,"Î·":4912,"æŃ¿":4913,"è¿ĩ":4914,"âļł":4915,"Ïģ":4916,"ÙĨ":4917,"éĩĭ":4918,"å°Ī":4919,"æ¨Ł":4920,"æ·º":4921,"âĺģ":4922,"èĽ¤":4923,"çĵĬ":4924,"âħ©":4925,"ç»į":4926,"ðŁĻĮ":4927,"éĢħ":4928,"éĽľ":4929,"è¿Ļ":4930,"æŀ¡":4931,"ç¹«":4932,"ç°ª":4933,"ðŁĮŁ":4934,"â¼Ī":4935,"ë¶":4936,"æľ¦":4937,"çĲ¦":4938,"æ±ª":4939,"æ¶İ":4940,"éĤĤ":4941,"ðŁ¦":4942,"â¼¤":4943,"ÏĤ":4944,"ÑĮ":4945,"ÙĤ":4946,"ä½ł":4947,"é©ķ":4948,"ç¸Ĭ":4949,"ç°Ĵ":4950,"åµľ":4951,"âĦĵ":4952,"ðŁĺį":4953,"é¯±":4954,"à¦":4955,"â»":4956,"å¾ł":4957,"é¡µ":4958,"éĿ³":4959,"ãĩ»":4960,"Âĩ":4961,"Ø¯":4962,"è³£":4963,"çŃĮ":4964,"ç²½":4965,"Ðľ":4966,"ìķ":4967,"åĪİ":4968,"åĨĢ":4969,"æĺ´":4970,"æĩ¿":4971,"à¤¨":4972,"å®¦":4973,"å¹¿":4974,"ðŁĴĸ":4975,"ê¸°":4976,"Âļ":4977,"Î¹":4978,"Ø©":4979,"âĹī":4980,"éīĹ":4981,"æ¢³":4982,"ðŁĺī":4983,"Åł":4984,"ï§":4985,"æĽ·":4986,"éıĥ":4987,"èķģ":4988,"à¤¿":4989,"ðĿĳ":4990,"Øª":4991,"äºŀ":4992,"è£´":4993,"èĪħ":4994,"èĳ©":4995,"çĳª":4996,"Ãĸ":4997,"Ãĺ":4998,"åħĹ":4999,"éĽī":5000,"è¿ŀ":5001,"è¾¯":5002,"èĹı":5003,"çĮ¾":5004,"è¤Ħ":5005,"ðŁĺĮ":5006,"â½£":5007,"ÎĽ":5008,"è©¢":5009,"ç¤Ĵ":5010,"çŁľ":5011,"è¼¦":5012,"èĬ»":5013,"âīĪ":5014,"æķ²":5015,"æİ¬":5016,"åŁľ":5017,"çĮ·":5018,"éįĶ":5019,"é¶ļ":5020,"çĵļ":5021,"âĦĸ":5022,"è¡¾":5023,"æ¥®":5024,"çĭ½":5025,"èĽ¸":5026,"âłĢ":5027,"çĶĳ":5028,"æĪŁ":5029,"èĸĬ":5030,"âĶı":5031,"éĵ¾":5032,"ìĭ":5033,"çĶµ":5034,"åĳĺ":5035,"çŃį":5036,"ç®´":5037,"æĴŀ":5038,"ðŁĺĦ":5039,"âĿĵ":5040,"ÅĽ":5041,"âĤ":5042,"çµĥ":5043,"æ¸Ń":5044,"è¼ľ":5045,"ï¾ķ":5046,"åĿ¤":5047,"âĳ©":5048,"ÉĻ":5049,"ïĴ":5050,"å¤¥":5051,"çĻ²":5052,"å¯¶":5053,"æĴ¼":5054,"ç¯Ŀ":5055,"é±Ĵ":5056,"ãĨĳ":5057,"â¸Ŀ":5058,"ÐĲ":5059,"å°ĩ":5060,"çĲħ":5061,"å§¥":5062,"æ¨£":5063,"ç³İ":5064,"æĲĹ":5065,"æ»¬":5066,"æĵ§":5067,"ðŁĻĤ":5068,"Û¶":5069,"âĥ":5070,"è¿Ĳ":5071,"æ¯«":5072,"è¬Ĳ":5073,"çĥŁ":5074,"âĵ":5075,"æİ¾":5076,"é«ı":5077,"é«ĳ":5078,"èĦ¹":5079,"æļĪ":5080,"âľħ":5081,"ðŁĶŀ":5082,"ìļ":5083,"ä¸ĵ":5084,"âĢĮ":5085,"ç·Ŀ":5086,"æ§¿":5087,"çªĿ":5088,"æĳ¸":5089,"æĩĪ":5090,"ãİİ":5091,"âľ°":5092,"âľĵ":5093,"æĪį":5094,"å±¬":5095,"å¢º":5096,"æ¤Ľ":5097,"âĺĿ":5098,"éĦ²":5099,"äºĤ":5100,"å¹Ģ":5101,"åº¾":5102,"æ°Ĳ":5103,"èµ«":5104,"ç¢Į":5105,"è´¨":5106,"âħ¥":5107,"åħ´":5108,"æ¼²":5109,"æ¶µ":5110,"ãħĤ":5111,"å¾Ĥ":5112,"ç¹ļ":5113,"éľ¹":5114,"çĺ»":5115,"åļĨ":5116,"ç»ĵ":5117,"Ñı":5118,"çĽª":5119,"éł´":5120,"ç¨Ĺ":5121,"æĤĮ":5122,"èĮ²":5123,"éĨī":5124,"éĭ¤":5125,"çºĮ":5126,"é¯°":5127,"ðŁİī":5128,"ðŁĳı":5129,"ðŁ¤Ĺ":5130,"ÅĪ":5131,"æł¢":5132,"éĿĤ":5133,"ç¨Ļ":5134,"ç¢°":5135,"çĿ«":5136,"ç¦¾":5137,"âĪĪ":5138,"Â¶":5139,"Äĩ":5140,"Ùİ":5141,"ëĤ":5142,"åħ¢":5143,"å¯¬":5144,"è«·":5145,"åģĩ":5146,"ç¹¼":5147,"é©¤":5148,"éĪŀ":5149,"â½ĩ":5150,"Åļ":5151,"ËĨ":5152,"Ùĩ":5153,"éĸ¨":5154,"æŃİ":5155,"å¼¯":5156,"å¥§":5157,"ç¯Ĩ":5158,"çĭĦ":5159,"éĬĪ":5160,"èĽ¹":5161,"Âİ":5162,"æĺĬ":5163,"æŁĺ":5164,"æ¤Ļ":5165,"è¥¦":5166,"ç±¤":5167,"èĸĽ":5168,"éĬī":5169,"é¬ļ":5170,"Ã«":5171,"è¡ŀ":5172,"æ¸¤":5173,"éħ©":5174,"éħĬ":5175,"åĸ®":5176,"æ»Ħ":5177,"âĪĹ":5178,"èľĥ":5179,"ìĿĺ":5180,"ìŀ":5181,"æĭµ":5182,"æŁ©":5183,"ç¢ĵ":5184,"æģ«":5185,"æ¶¸":5186,"âĹį":5187,"æĨ¬":5188,"å¨¥":5189,"çĩ¼":5190,"é¥Į":5191,"Ðĳ":5192,"ãĢ½":5193,"çĶľ":5194,"ä»½":5195,"å·ĸ":5196,"çĲ®":5197,"ç¾Ĩ":5198,"å»Ļ":5199,"éĮļ":5200,"çĨ¹":5201,"çĩĲ":5202,"Ð¡":5203,"ä¸Ŀ":5204,"éĢį":5205,"åĬ¨":5206,"å¯«":5207,"æĮĽ":5208,"çľ¸":5209,"èĪ©":5210,"ç©Ĩ":5211,"çĹī":5212,"ÅĤ":5213,"âĽ":5214,"ä¼¦":5215,"å¸Ľ":5216,"æĶĿ":5217,"çķ¦":5218,"âĢ¬":5219,"åĴĴ":5220,"æģ¢":5221,"é¤ĺ":5222,"ç±Ķ":5223,"é°Ĭ":5224,"Ø¹":5225,"éĴ":5226,"å¥ĺ":5227,"èµ³":5228,"èĬį":5229,"çĭł":5230,"æ£ł":5231,"éĪ¿":5232,"âķ¹":5233,"Ïĩ":5234,"Ñĩ":5235,"æĸĥ":5236,"æĿ·":5237,"éĽŀ":5238,"æĥ¡":5239,"é£«":5240,"çĤ³":5241,"æĤį":5242,"çł§":5243,"å¦į":5244,"èĮĹ":5245,"âĸª":5246,"ðŁĺĢ":5247,"ìłķ":5248,"ãī":5249,"ç¬Ĭ":5250,"èī¾":5251,"ç©¹":5252,"ç¾²":5253,"çĮľ":5254,"çįº":5255,"èª¼":5256,"æŃ¸":5257,"åįĢ":5258,"è©Ń":5259,"åĵŃ":5260,"é»į":5261,"Ðł":5262,"ä¸½":5263,"æĶĢ":5264,"é£İ":5265,"çŃ§":5266,"è¼ķ":5267,"éľ°":5268,"éīī":5269,"é©ĥ":5270,"èİĬ":5271,"â»ĳ":5272,"åĬĶ":5273,"æģį":5274,"ìĪ":5275,"æķį":5276,"æ³ĵ":5277,"å£Ļ":5278,"éļ±":5279,"çŃµ":5280,"éŁ¶":5281,"ç±»":5282,"âĪļ":5283,"âĿĢ":5284,"â¾ı":5285,"Âĺ":5286,"ÑĨ":5287,"ì§":5288,"ãĥ®":5289,"å¸Ī":5290,"çīĴ":5291,"æ²Ľ":5292,"æ¨Ĭ":5293,"æ¤°":5294,"è®¤":5295,"âĬ¿":5296,"æĪĢ":5297,"è¿ª":5298,"ç«Ł":5299,"åĦº":5300,"éĨĹ":5301,"×Ļ":5302,"à¼":5303,"å®«":5304,"æĿ£":5305,"å¼Ģ":5306,"çķ¢":5307,"æ½´":5308,"è¯±":5309,"Î¶":5310,"ØŃ":5311,"èĤĨ":5312,"æĲ¦":5313,"åļ¶":5314,"âģĩ":5315,"è¯Ń":5316,"âķ°":5317,"Ã¬":5318,"Ã¹":5319,"ãĢĵ":5320,"åĲ½":5321,"è¡į":5322,"åŁĶ":5323,"è¢ľ":5324,"æ¾³":5325,"è½¦":5326,"é°¯":5327,"èłķ":5328,"ëĭ¤":5329,"Äĵ":5330,"ÑĪ":5331,"ìĬ":5332,"ìľ":5333,"åīĭ":5334,"éļ¨":5335,"åķª":5336,"åĻ¤":5337,"å¬¬":5338,"á¹ĩ":5339,"âķ¯":5340,"â¤´":5341,"ä¾ĺ":5342,"âĢŁ":5343,"å§¬":5344,"é§Ī":5345,"æįĲ":5346,"âĶĽ":5347,"âĿĽ":5348,"é°į":5349,"ðŁĴª":5350,"à¤ķ":5351,"Ã°":5352,"Ìĳ":5353,"Ñħ":5354,"àŃ":5355,"åĩĸ":5356,"åĮį":5357,"éĥĿ":5358,"èıŁ":5359,"éº¾":5360,"Ãģ":5361,"ËĬ":5362,"èŃ¬":5363,"çŃ¥":5364,"âĶĺ":5365,"çĳľ":5366,"è¯Ŀ":5367,"â½¤":5368,"ðŁ¤Ķ":5369,"ðŁ¥º":5370,"ìĦľ":5371,"æĹģ":5372,"è¨¢":5373,"åĮĻ":5374,"æĵļ":5375,"å¶Į":5376,"â¼Ģ":5377,"å¤Ħ":5378,"åĲ¼":5379,"éĽ¹":5380,"è©Ī":5381,"å¥ĭ":5382,"çķ¯":5383,"æ¨¾":5384,"èĭ§":5385,"å»¬":5386,"çĩĴ":5387,"ðŁ§":5388,"é·Ĺ":5389,"Ãħ":5390,"Ãĩ":5391,"ëı":5392,"ä¸ķ":5393,"æĢģ":5394,"é«·":5395,"å§¨":5396,"éĮ¢":5397,"éĳł":5398,"ðŁĴĽ":5399,"çľĩ":5400,"æ¸«":5401,"å¬ª":5402,"æªĦ":5403,"ðŁĴĹ":5404,"Ëĭ":5405,"ë§":5406,"å¤´":5407,"åŃ©":5408,"ä¿İ":5409,"æ´Ļ":5410,"ç«¦":5411,"çĦ°":5412,"è£Ŀ":5413,"èģ¾":5414,"æ¨µ":5415,"èĦ¸":5416,"è¤Į":5417,"âĳª":5418,"éĳ¼":5419,"ë¦":5420,"ëª":5421,"åĪ³":5422,"å£¹":5423,"æ±Ģ":5424,"æŁ¥":5425,"çĳ¯":5426,"çº¹":5427,"âĿģ":5428,"âļ«":5429,"Ã»":5430,"×ķ":5431,"æĻ¨":5432,"æķİ":5433,"âĢ¨":5434,"âĢŀ":5435,"ç¹»":5436,"èĺĤ":5437,"èĿ¿":5438,"èĿł":5439,"é°º":5440,"ç»Ŀ":5441,"â¾ĥ":5442,"ÄĢ":5443,"Îĺ":5444,"Ðķ":5445,"ãĤİ":5446,"ä»Ĩ":5447,"åºĸ":5448,"åĮĲ":5449,"åīĮ":5450,"åĸĩ":5451,"ç¦ķ":5452,"çĭĢ":5453,"èĹ¹":5454,"åĿ¡":5455,"âĸ¸":5456,"èĽĨ":5457,"èĿĻ":5458,"Ùĥ":5459,"íĬ":5460,"äºĻ":5461,"æ®ĺ":5462,"çį»":5463,"è½¡":5464,"è®¡":5465,"éĦĻ":5466,"è¯·":5467,"ðŁĳĢ":5468,"à¯į":5469,"ËĻ":5470,"à²":5471,"å®¸":5472,"éĿĦ":5473,"èī®":5474,"åģĪ":5475,"éĺµ":5476,"è¬ł":5477,"æ»ķ":5478,"å¨Ł":5479,"æ¢Ł":5480,"åĺ¯":5481,"âĿķ":5482,"æª¬":5483,"æª¸":5484,"ï©Ľ":5485,"èĩļ":5486,"æıĴ":5487,"æĤ¨":5488,"åĴ«":5489,"æ·Ĩ":5490,"çģ£":5491,"ç¹¹":5492,"éľ½":5493,"âĶĲ":5494,"âĳħ":5495,"éŀĭ":5496,"ðŁĺ±":5497,"â¬ĩ":5498,"áµ":5499,"ì¹":5500,"åħ°":5501,"éģ¹":5502,"åĮľ":5503,"âĢļ":5504,"åĸĢ":5505,"æĴĵ":5506,"ç¯¥":5507,"éĹį":5508,"âĪ½":5509,"çĳŁ":5510,"à¥Ģ":5511,"ðŁ¥°":5512,"Ê»":5513,"àº":5514,"ë³":5515,"à¸Ŀ":5516,"ç¸·":5517,"èĹī":5518,"è¤«":5519,"éİļ":5520,"é©¢":5521,"çĳ¾":5522,"éĦĤ":5523,"ë¶Ģ":5524,"ÐŁ":5525,"áĲ":5526,"å¼ĭ":5527,"çľĪ":5528,"æİĸ":5529,"åķĸ":5530,"èĪį":5531,"è·Ľ":5532,"ç¯³":5533,"à¸İ":5534,"à¸ĳ":5535,"èĲ¥":5536,"çĸ½":5537,"éįį":5538,"ðŁĳĮ":5539,"ÃĨ":5540,"à©":5541,"å¤Ļ":5542,"åĬ¡":5543,"è²Ĥ":5544,"åĳĹ":5545,"ç«Ĵ":5546,"è§ī":5547,"ä¹ī":5548,"èĭĵ":5549,"æ¿Ł":5550,"æĵ±":5551,"çĩ¿":5552,"éĳļ":5553,"ðŁĴ¡":5554,"ï©¨":5555,"ë°":5556,"ç¾¯":5557,"çĹ£":5558,"çĹ¼":5559,"ç¢ķ":5560,"å«©":5561,"éİ¬":5562,"âĪ¼":5563,"á»ĩ":5564,"ï§Ĳ":5565,"ë¦¬":5566,"ï¦":5567,"æĻŁ":5568,"éĿľ":5569,"æŀĩ":5570,"åİ¦":5571,"èºĦ":5572,"èĳŃ":5573,"ç¿³":5574,"è¥·":5575,"éĬ³":5576,"âĺŀ":5577,"éĹķ":5578,"ç¼ĸ":5579,"é¯µ":5580,"æªĹ":5581,"â¼Ĭ":5582,"îĢī":5583,"ÐĴ":5584,"ëł":5585,"æ¥«":5586,"å¥¹":5587,"ä¾ĥ":5588,"åĢĳ":5589,"æ±ī":5590,"è¥ŀ":5591,"å©¢":5592,"âĺª":5593,"èĴŁ":5594,"æ¾¹":5595,"è¯´":5596,"ðŁĻĨ":5597,"âĵĩ":5598,"è¡Ĵ":5599,"åĽ®":5600,"ç¤¦":5601,"æ§İ":5602,"ç¨Ł":5603,"é¾Ĳ":5604,"æª£":5605,"ãĩ½":5606,"ËĪ":5607,"ä¼ĺ":5608,"å¯¨":5609,"é¡ı":5610,"ç¬µ":5611,"èī±":5612,"æ²½":5613,"è£Ħ":5614,"ç®Ģ":5615,"éŃĦ":5616,"è°Ī":5617,"èĶĹ":5618,"âĳ«":5619,"á¹Ń":5620,"ãĮĶ":5621,"å©ķ":5622,"éŃİ":5623,"èĴ´":5624,"é¬ĺ":5625,"èĽī":5626,"è½ī":5627,"èĿĹ":5628,"ðŁĺ£":5629,"åļ®":5630,"éµĦ":5631,"ãĨĴ":5632,"ãĨĵ":5633,"ì§Ģ":5634,"Å£":5635,"Ø³":5636,"éģĲ":5637,"éĽĻ":5638,"æ©ĩ":5639,"éħĽ":5640,"ç½Ĳ":5641,"è±Ĳ":5642,"å¦¤":5643,"çį°":5644,"èĻ¢":5645,"âĪ¶":5646,"èĴ»":5647,"èľ»":5648,"ðŁĺ³":5649,"éµŀ":5650,"ðŁĴ«":5651,"ç»ı":5652,"íķ´":5653,"â¬ľ":5654,"â¸ľ":5655,"×Ķ":5656,"ê°":5657,"å¾Ī":5658,"æĻī":5659,"æķĪ":5660,"ç·ŀ":5661,"é£ŀ":5662,"æ±¾":5663,"è¾Ń":5664,"æģķ":5665,"âĶĵ":5666,"éĨ¬":5667,"Å½":5668,"ìĺ":5669,"æĪª":5670,"âĢ°":5671,"âĢ¹":5672,"âĢ¿":5673,"æ§Ĳ":5674,"é£ľ":5675,"èı«":5676,"å¦º":5677,"éĤ¢":5678,"æ»¿":5679,"èĿ®":5680,"çĺ¢":5681,"íķĺ":5682,"ðŁŁ§":5683,"à©Ń":5684,"Æ°":5685,"áĹ":5686,"èªĤ":5687,"æĦ´":5688,"éĻĭ":5689,"éĿĪ":5690,"åĢħ":5691,"çŃħ":5692,"èµĦ":5693,"é¤ī":5694,"åĻª":5695,"è®ĵ":5696,"âľĸ":5697,"ðŁĺĭ":5698,"ðŁĴ§":5699,"ìĬ¤":5700,"ãĦ":5701,"ê¹":5702,"åķľ":5703,"ç¶¸":5704,"æ²Ĥ":5705,"çĤ¬":5706,"æŁ¾":5707,"âĳ¬":5708,"éĪĶ":5709,"âĬ·":5710,"ìĪĺ":5711,"ÃĪ":5712,"×¨":5713,"å®ŀ":5714,"è©Ľ":5715,"éĻŀ":5716,"æ´Ł":5717,"å²Ľ":5718,"âĹ¼":5719,"âĺĵ":5720,"æ¢ĥ":5721,"çĩµ":5722,"éªĮ":5723,"ï¿¼":5724,"â½ī":5725,"à¥ĳ":5726,"ëĤĺ":5727,"Ã®":5728,"ÅĦ":5729,"ÏĮ":5730,"ÑĬ":5731,"éĸ©":5732,"åĬŀ":5733,"çĽĪ":5734,"çĽľ":5735,"æ¥ŀ":5736,"çĻ¸":5737,"èĩĪ":5738,"æģª":5739,"é¤ŀ":5740,"ç¦§":5741,"èĲĬ":5742,"âĹ¤":5743,"âĹł":5744,"âĺ»":5745,"âĺŁ":5746,"è´Ľ":5747,"è¯ķ":5748,"â½ħ":5749,"ê³ł":5750,"Åĵ":5751,"ãı":5752,"ë¡":5753,"æĹĮ":5754,"åĨµ":5755,"æ¥¡":5756,"è»Ľ":5757,"ï½ĳ":5758,"è¾¾":5759,"ç¿Ĭ":5760,"èĹº":5761,"æ»ī":5762,"å¨į":5763,"çĳģ":5764,"è¹ł":5765,"ðŁįĵ":5766,"â¾Ĵ":5767,"à®Ł":5768,"áµķ":5769,"Äħ":5770,"Ó©":5771,"ðĵ":5772,"ä¼¶":5773,"æŃĻ":5774,"åįŀ":5775,"å±İ":5776,"æĽµ":5777,"æ¬Ĭ":5778,"å¢»":5779,"âĹ¦":5780,"è¢į":5781,"é®ĳ":5782,"æĩ¼":5783,"âĶĮ":5784,"ðŁĸ":5785,"çĳ¶":5786,"åĹ½":5787,"ðŁĴŀ":5788,"âģ°":5789,"ï¨Ĳ":5790,"ðŁĮĪ":5791,"íĬ¸":5792,"âĴ":5793,"å¤¾":5794,"åıŁ":5795,"æĸ©":5796,"è¦º":5797,"æĦį":5798,"ä¾Ī":5799,"æĥº":5800,"è§¸":5801,"ä¹į":5802,"è«¤":5803,"æ£Ĺ":5804,"è¢±":5805,"çħ¬":5806,"æĳł":5807,"à¥ģ":5808,"ðŁŁ¨":5809,"ìķĦ":5810,"Ïħ":5811,"ÑĦ":5812,"æľķ":5813,"çŁ£":5814,"èŃ¯":5815,"ç¶½":5816,"èģĮ":5817,"åİ¿":5818,"ä¹Ī":5819,"æºĮ":5820,"åĸŀ":5821,"çİģ":5822,"ç®ļ":5823,"çĭģ":5824,"çĮ©":5825,"æ»İ":5826,"è°¢":5827,"å«Ĥ":5828,"âĳŃ":5829,"çĢĽ":5830,"é¶µ":5831,"èĺ¿":5832,"éµ·":5833,"âģ¡":5834,"ðŁİģ":5835,"á¸¥":5836,"Äª":5837,"Ì£":5838,"ÌĦ":5839,"ÐĿ":5840,"ìĥ":5841,"åıĺ":5842,"æĢ¡":5843,"çµħ":5844,"å½Ĭ":5845,"æ³¯":5846,"æŀĦ":5847,"åĥ¹":5848,"æĤ´":5849,"åĴ©":5850,"èĳ«":5851,"èĨ¾":5852,"èĻ±":5853,"éĪ·":5854,"é´Ľ":5855,"â¤µ":5856,"ê³µ":5857,"Ãį":5858,"Åª":5859,"ëħ":5860,"ëĿ":5861,"ðĸ":5862,"ä¸ļ":5863,"ä»¬":5864,"ä»Ĺ":5865,"åĲ§":5866,"æĸŁ":5867,"èªª":5868,"æĶ¶":5869,"æ¸£":5870,"ä¹ĺ":5871,"èı´":5872,"é»Į":5873,"á¹Ĩ":5874,"ê¹Ģ":5875,"Ãļ":5876,"ÅĴ":5877,"æĿĢ":5878,"æĪı":5879,"åī§":5880,"å¥İ":5881,"çİ°":5882,"ç¹ŀ":5883,"èħŁ":5884,"æ½ħ":5885,"èĨ½":5886,"é©Ł":5887,"ðŁĺİ":5888,"à¤¤":5889,"â¾¼":5890,"ðŁĲ¶":5891,"ðŁĲº":5892,"è¡¢":5893,"åī±":5894,"çŁ§":5895,"ç«Ŀ":5896,"ç¶µ":5897,"èĪĴ":5898,"æ©Ī":5899,"ä¹¦":5900,"å»ĸ":5901,"ç¯ģ":5902,"çĪŃ":5903,"æ¿µ":5904,"âĪ´":5905,"èİ½":5906,"èłħ":5907,"Ðŀ":5908,"áĥ":5909,"éĶ":5910,"åıŃ":5911,"åħ©":5912,"åĩī":5913,"æĦ¼":5914,"å¯¥":5915,"å¼ĥ":5916,"æĶ¸":5917,"çŃº":5918,"èĤ±":5919,"å¢Ĭ":5920,"æĲľ":5921,"æ½¼":5922,"âĸ¹":5923,"å«¦":5924,"âĶ³":5925,"âĪ¥":5926,"ðŁĺĵ":5927,"ðŁĴģ":5928,"èŁł":5929,"èŀĤ":5930,"é¸ļ":5931,"ëĿ¼":5932,"Ðĺ":5933,"Õŀ":5934,"Ø¬":5935,"ä»İ":5936,"æĿ°":5937,"å¸¦":5938,"å°Ķ":5939,"å±¡":5940,"ä¿ł":5941,"ç©°":5942,"æº¥":5943,"æĲŀ":5944,"é¹¹":5945,"âĳ´":5946,"âĪ§":5947,"âĪ¬":5948,"âĦ¡":5949,"âĩĵ":5950,"èķĹ":5951,"éŀ£":5952,"âĿ¶":5953,"à¤¹":5954,"ðŁĮİ":5955,"ãĮ§":5956,"ïĺĬ":5957,"âĭĨ":5958,"ÃĦ":5959,"Ð¶":5960,"ÙĴ":5961,"ê´":5962,"æİī":5963,"èĥ¥":5964,"éĮ£":5965,"å²ĳ":5966,"ç¸º":5967,"æ¿¬":5968,"èįĢ":5969,"ðŁĺĩ":5970,"ðŁĴ¨":5971,"ãĪ°":5972,"á¸į":5973,"ìĭľ":5974,"Çİ":5975,"Ø®":5976,"ë¬":5977,"åĭģ":5978,"åĨı":5979,"çĻ¥":5980,"æĪ·":5981,"èĩĤ":5982,"å¼ł":5983,"çīĢ":5984,"èīĢ":5985,"æħŁ":5986,"æ¼¯":5987,"ç¹ª":5988,"æ¦ĳ":5989,"çįı":5990,"âĳµ":5991,"é¾Ļ":5992,"èİĴ":5993,"éµ²":5994,"âģĪ":5995,"ðŁĳĶ":5996,"âĬķ":5997,"ï¹¡":5998,"ìĭł":5999}